-- MIF file generated from .npy file
DEPTH = 1024;
WIDTH = 16;
ADDRESS_RADIX = UNS;
DATA_RADIX = HEX;
CONTENT BEGIN
	0 : 0033;
	1 : FFA8;
	2 : FF74;
	3 : FFF8;
	4 : FFB2;
	5 : 0052;
	6 : 0035;
	7 : FFA5;
	8 : FF74;
	9 : 0017;
	10 : FF65;
	11 : FF63;
	12 : FF06;
	13 : FFA9;
	14 : FF9E;
	15 : FFE9;
	16 : 006B;
	17 : FFBB;
	18 : FF5A;
	19 : 005B;
	20 : FFF4;
	21 : FF8B;
	22 : 004C;
	23 : FF81;
	24 : 005C;
	25 : 0023;
	26 : 0071;
	27 : 0061;
	28 : 0001;
	29 : FF8B;
	30 : FF9A;
	31 : 0155;
	32 : FF8F;
	33 : 0043;
	34 : FF70;
	35 : FF86;
	36 : FFA6;
	37 : FFDF;
	38 : FFF1;
	39 : FFDB;
	40 : FFCF;
	41 : FF94;
	42 : FF9E;
	43 : FFDA;
	44 : FFF0;
	45 : 0009;
	46 : FFE7;
	47 : 0059;
	48 : FF9E;
	49 : 0002;
	50 : FF8F;
	51 : FFB0;
	52 : FFAF;
	53 : FF54;
	54 : FF99;
	55 : FF9E;
	56 : 002C;
	57 : FFE1;
	58 : FFA9;
	59 : FFA2;
	60 : FFF3;
	61 : 001C;
	62 : 0075;
	63 : FFEE;
	64 : FF6F;
	65 : FF7A;
	66 : FF9E;
	67 : FF23;
	68 : 0047;
	69 : FF74;
	70 : FF9B;
	71 : FFAE;
	72 : FFC1;
	73 : FED5;
	74 : 0016;
	75 : FF98;
	76 : 0028;
	77 : FFEE;
	78 : FF53;
	79 : 0030;
	80 : FF9E;
	81 : FFF2;
	82 : FFC0;
	83 : FF8B;
	84 : FFA0;
	85 : FFA0;
	86 : 0006;
	87 : FFC1;
	88 : FFD7;
	89 : FF26;
	90 : 0057;
	91 : FF75;
	92 : FF92;
	93 : 0018;
	94 : FFC7;
	95 : FF52;
	96 : FF61;
	97 : 005A;
	98 : FFC0;
	99 : FFAC;
	100 : FFAA;
	101 : 0085;
	102 : FFB7;
	103 : FFCF;
	104 : 0011;
	105 : FF8B;
	106 : 0012;
	107 : 0059;
	108 : 0062;
	109 : FFCB;
	110 : FEAA;
	111 : FFDE;
	112 : FF7C;
	113 : FF71;
	114 : 00A5;
	115 : FFB2;
	116 : FF84;
	117 : FFDC;
	118 : 0071;
	119 : 008C;
	120 : FFA1;
	121 : FFAD;
	122 : FF7E;
	123 : FFCB;
	124 : FF74;
	125 : 0048;
	126 : 001B;
	127 : FF95;
	128 : FFAC;
	129 : FF7A;
	130 : FFA9;
	131 : 0040;
	132 : FFB0;
	133 : FF8F;
	134 : FFE3;
	135 : FFB2;
	136 : FFA5;
	137 : FFB3;
	138 : FFB5;
	139 : FFEF;
	140 : FF59;
	141 : FF87;
	142 : FF97;
	143 : FF6C;
	144 : FF57;
	145 : FF6E;
	146 : FFAC;
	147 : FF54;
	148 : FF9E;
	149 : FFA5;
	150 : FFDD;
	151 : 004C;
	152 : 0006;
	153 : 0069;
	154 : FFA9;
	155 : FF09;
	156 : FF67;
	157 : FF87;
	158 : FF7B;
	159 : FF9E;
	160 : 0072;
	161 : FF94;
	162 : FFA4;
	163 : FFC8;
	164 : 0077;
	165 : FFF4;
	166 : FF9E;
	167 : FF27;
	168 : FFB7;
	169 : 0011;
	170 : FF7B;
	171 : 008C;
	172 : FF3D;
	173 : 000E;
	174 : 0013;
	175 : FF78;
	176 : 000D;
	177 : FFD4;
	178 : FFAF;
	179 : FF8B;
	180 : FFAA;
	181 : FF9E;
	182 : FF6F;
	183 : FF73;
	184 : FFA6;
	185 : FFC8;
	186 : 0000;
	187 : FFA8;
	188 : FF9E;
	189 : FFD7;
	190 : FFBC;
	191 : FFC8;
	192 : FFF7;
	193 : 0035;
	194 : 0078;
	195 : FF9E;
	196 : FF46;
	197 : FF69;
	198 : FFA7;
	199 : FF7B;
	200 : FFE1;
	201 : FFE7;
	202 : 0001;
	203 : FFBA;
	204 : FF3C;
	205 : FF65;
	206 : FF9E;
	207 : FFAD;
	208 : 002A;
	209 : FF9E;
	210 : FFA1;
	211 : FF93;
	212 : FF98;
	213 : FF6E;
	214 : FF68;
	215 : 000A;
	216 : FF9F;
	217 : FFCA;
	218 : 001E;
	219 : 0051;
	220 : FFC1;
	221 : FFA5;
	222 : 006B;
	223 : FF83;
	224 : FFC1;
	225 : FF86;
	226 : 0043;
	227 : 0017;
	228 : FFE4;
	229 : FFCD;
	230 : 003C;
	231 : FFF7;
	232 : FFC2;
	233 : FF4E;
	234 : 0054;
	235 : FFA6;
	236 : 0090;
	237 : FF89;
	238 : FFAE;
	239 : 0086;
	240 : FEDF;
	241 : 0010;
	242 : 0070;
	243 : FF9E;
	244 : 000F;
	245 : FFDD;
	246 : FF5D;
	247 : FFEC;
	248 : FFFB;
	249 : FF94;
	250 : 004B;
	251 : 0032;
	252 : 0027;
	253 : FF76;
	254 : FFB2;
	255 : FF55;
	256 : FF91;
	257 : 004F;
	258 : FF95;
	259 : FFC9;
	260 : FFB6;
	261 : 000E;
	262 : 0021;
	263 : FFD2;
	264 : 008F;
	265 : FFA4;
	266 : FF9E;
	267 : FFBC;
	268 : FF7B;
	269 : FFED;
	270 : FF6D;
	271 : 001C;
	272 : FF75;
	273 : FF84;
	274 : FFA8;
	275 : 0067;
	276 : FFA9;
	277 : FFC7;
	278 : 00A4;
	279 : FF9E;
	280 : FF43;
	281 : FFB8;
	282 : 0050;
	283 : 001E;
	284 : FF83;
	285 : FF66;
	286 : FF74;
	287 : FFB7;
	288 : 00A3;
	289 : FF41;
	290 : 005A;
	291 : FFEA;
	292 : FF90;
	293 : FF90;
	294 : 000D;
	295 : FF4C;
	296 : FEE7;
	297 : 009E;
	298 : FF76;
	299 : FF9E;
	300 : FF94;
	301 : 004E;
	302 : FF7A;
	303 : FEB3;
	304 : FF3B;
	305 : FF9E;
	306 : FF70;
	307 : 0069;
	308 : FF98;
	309 : FFB5;
	310 : FF7C;
	311 : FF90;
	312 : 0056;
	313 : FF9E;
	314 : FFA3;
	315 : 0083;
	316 : FFB9;
	317 : FF7A;
	318 : FFB3;
	319 : 00A3;
	320 : FF9D;
	321 : FF88;
	322 : FFD3;
	323 : 002C;
	324 : 0047;
	325 : FF96;
	326 : FF96;
	327 : FF11;
	328 : FF94;
	329 : FFD5;
	330 : FFE5;
	331 : FF7E;
	332 : FF7A;
	333 : FF82;
	334 : 002D;
	335 : 0074;
	336 : 000C;
	337 : FF54;
	338 : 000C;
	339 : FFCB;
	340 : FF4D;
	341 : FF88;
	342 : FF7B;
	343 : 005E;
	344 : FF9C;
	345 : FFA0;
	346 : FF9B;
	347 : 002C;
	348 : 0004;
	349 : 0039;
	350 : FFF4;
	351 : 0055;
	352 : FF9E;
	353 : FFEB;
	354 : FFC7;
	355 : FFB4;
	356 : 0065;
	357 : FFC5;
	358 : FF98;
	359 : FEE4;
	360 : FFAC;
	361 : FFC1;
	362 : FFB5;
	363 : 0097;
	364 : FFB8;
	365 : FFCC;
	366 : FF6C;
	367 : FFA2;
	368 : FFAE;
	369 : 000C;
	370 : FFA5;
	371 : FFDE;
	372 : FFB1;
	373 : FFDE;
	374 : FF62;
	375 : FF7F;
	376 : FFBC;
	377 : FFD5;
	378 : FFF0;
	379 : FFC9;
	380 : 0090;
	381 : FF9F;
	382 : FFA7;
	383 : FFB3;
	384 : FF5D;
	385 : 0028;
	386 : FF9B;
	387 : FF36;
	388 : FFB8;
	389 : FF3E;
	390 : FF7D;
	391 : FFE8;
	392 : FF9C;
	393 : 0000;
	394 : FFEB;
	395 : 0013;
	396 : FFC5;
	397 : FFFB;
	398 : FFAF;
	399 : 0043;
	400 : FFBF;
	401 : 0013;
	402 : FF55;
	403 : FF79;
	404 : FFCA;
	405 : 0001;
	406 : FF7E;
	407 : FF49;
	408 : 0010;
	409 : FFBF;
	410 : FF87;
	411 : FFC6;
	412 : 0028;
	413 : FFCF;
	414 : FFEA;
	415 : 000F;
	416 : 004E;
	417 : FF9D;
	418 : FF91;
	419 : FF5B;
	420 : FF75;
	421 : FF71;
	422 : FFA9;
	423 : FF9B;
	424 : 001C;
	425 : FFA1;
	426 : FF9E;
	427 : FF75;
	428 : 0017;
	429 : FF40;
	430 : FF9A;
	431 : 0015;
	432 : FFAF;
	433 : FFE6;
	434 : FFFC;
	435 : FF5F;
	436 : FF83;
	437 : FFC9;
	438 : FFA8;
	439 : FFD9;
	440 : FF88;
	441 : FEFF;
	442 : 0098;
	443 : FFD9;
	444 : FFA7;
	445 : FF38;
	446 : FFDB;
	447 : 005B;
	448 : FFAA;
	449 : FFFA;
	450 : FFB0;
	451 : FFBF;
	452 : FF30;
	453 : 0015;
	454 : FF97;
	455 : 000A;
	456 : 0007;
	457 : FF75;
	458 : FF9E;
	459 : FFC0;
	460 : FFA9;
	461 : FF8A;
	462 : FFEE;
	463 : FFEC;
	464 : FFB7;
	465 : FFBF;
	466 : FF9C;
	467 : 0028;
	468 : FFED;
	469 : FF98;
	470 : FF9E;
	471 : FFC2;
	472 : FFFC;
	473 : FF96;
	474 : 0059;
	475 : 000F;
	476 : FF76;
	477 : 0012;
	478 : FFB6;
	479 : FF78;
	480 : FFE3;
	481 : FFA5;
	482 : 001E;
	483 : FF5B;
	484 : FFDC;
	485 : 001F;
	486 : FFEA;
	487 : 005C;
	488 : FFB3;
	489 : FFAA;
	490 : FFBC;
	491 : FFD3;
	492 : FF7D;
	493 : 002E;
	494 : 002C;
	495 : FED7;
	496 : 006D;
	497 : FFAC;
	498 : FFDF;
	499 : 001B;
	500 : 0019;
	501 : 000C;
	502 : 003F;
	503 : FF9F;
	504 : FF8C;
	505 : 004B;
	506 : FF6D;
	507 : FFA7;
	508 : FFAC;
	509 : FFA7;
	510 : FF9E;
	511 : FF95;
	512 : 003B;
	513 : 0019;
	514 : FFBD;
	515 : FF35;
	516 : FF60;
	517 : FF9E;
	518 : 0000;
	519 : FF77;
	520 : 005E;
	521 : FF84;
	522 : FFFE;
	523 : 002D;
	524 : FF29;
	525 : 0049;
	526 : 0075;
	527 : 0055;
	528 : FFBC;
	529 : FFAC;
	530 : 00A3;
	531 : FF9E;
	532 : FF91;
	533 : 005B;
	534 : FF9E;
	535 : 0029;
	536 : 0071;
	537 : FFD2;
	538 : FFF4;
	539 : FF83;
	540 : FFBF;
	541 : FFAA;
	542 : 008E;
	543 : FF45;
	544 : 0024;
	545 : FFD8;
	546 : 003C;
	547 : FF5C;
	548 : FF69;
	549 : 0097;
	550 : FF22;
	551 : 004E;
	552 : FF03;
	553 : FFA9;
	554 : FF45;
	555 : FFFC;
	556 : FF36;
	557 : FFA6;
	558 : FFC5;
	559 : FF2D;
	560 : FFAB;
	561 : FF9B;
	562 : FF97;
	563 : FF82;
	564 : 0013;
	565 : FF9B;
	566 : FFCF;
	567 : FFD9;
	568 : FF89;
	569 : 0032;
	570 : 004A;
	571 : 000B;
	572 : FF99;
	573 : 0069;
	574 : 0021;
	575 : FFA3;
	576 : FF9E;
	577 : FF59;
	578 : FF93;
	579 : FFCE;
	580 : 0024;
	581 : FF3D;
	582 : FF77;
	583 : FF92;
	584 : FF9E;
	585 : FFB5;
	586 : FF9A;
	587 : FF9A;
	588 : FF93;
	589 : FF76;
	590 : FF78;
	591 : FFA4;
	592 : FFCA;
	593 : FF87;
	594 : FF42;
	595 : 001A;
	596 : 00DC;
	597 : FF9B;
	598 : FFBC;
	599 : FF81;
	600 : 0034;
	601 : 0058;
	602 : FFF5;
	603 : FF9E;
	604 : FFAE;
	605 : FF83;
	606 : FF88;
	607 : 001C;
	608 : 00DD;
	609 : 0005;
	610 : 003D;
	611 : 0000;
	612 : FF98;
	613 : FF99;
	614 : FF15;
	615 : 003C;
	616 : FFCF;
	617 : 0039;
	618 : 005B;
	619 : FF9E;
	620 : FFC9;
	621 : FF6E;
	622 : FEFB;
	623 : FF3E;
	624 : FF73;
	625 : FFBC;
	626 : FFDD;
	627 : FF6F;
	628 : 0064;
	629 : 0118;
	630 : FF9E;
	631 : FF8A;
	632 : 003B;
	633 : FF94;
	634 : FF74;
	635 : FFC9;
	636 : FF9E;
	637 : 0077;
	638 : 002E;
	639 : FF6D;
	640 : FFE1;
	641 : FFAC;
	642 : 0035;
	643 : FFD4;
	644 : 0038;
	645 : 0006;
	646 : FF72;
	647 : 0094;
	648 : FF94;
	649 : FF84;
	650 : FF51;
	651 : FF9B;
	652 : FFAC;
	653 : FFA2;
	654 : FFD3;
	655 : FFED;
	656 : FF76;
	657 : FF7A;
	658 : FF87;
	659 : FFB1;
	660 : FFC8;
	661 : FF92;
	662 : 001B;
	663 : FFCE;
	664 : FF23;
	665 : FFB5;
	666 : FFAB;
	667 : 0029;
	668 : FF78;
	669 : FE4B;
	670 : FFA5;
	671 : FF7D;
	672 : FFCC;
	673 : 0020;
	674 : FFCA;
	675 : FF3E;
	676 : FFA8;
	677 : FFC4;
	678 : FF95;
	679 : FFBA;
	680 : 000B;
	681 : FFCD;
	682 : 0057;
	683 : FF77;
	684 : FF89;
	685 : FFD5;
	686 : FFC2;
	687 : FFE2;
	688 : 0001;
	689 : 00B9;
	690 : FF77;
	691 : FFC8;
	692 : FFAE;
	693 : FFBB;
	694 : 006F;
	695 : FF11;
	696 : 0069;
	697 : FFBC;
	698 : FFEB;
	699 : 0062;
	700 : FFCB;
	701 : 0027;
	702 : FFA0;
	703 : FFAA;
	704 : FFB2;
	705 : FFF9;
	706 : FF90;
	707 : FF9B;
	708 : FF31;
	709 : FFAF;
	710 : FFA7;
	711 : FF45;
	712 : FF95;
	713 : FFA4;
	714 : 0033;
	715 : FFBE;
	716 : 00A6;
	717 : FF08;
	718 : 001A;
	719 : FF5B;
	720 : 006B;
	721 : FF93;
	722 : FF90;
	723 : 003D;
	724 : FED0;
	725 : 0018;
	726 : FF83;
	727 : 0032;
	728 : FFE9;
	729 : FFAC;
	730 : FF9E;
	731 : FF7A;
	732 : FF7A;
	733 : FF6A;
	734 : FFD1;
	735 : FF9E;
	736 : 0015;
	737 : FFB3;
	738 : FF98;
	739 : FFF4;
	740 : FF8E;
	741 : FFAB;
	742 : FFB3;
	743 : FFC8;
	744 : FF8D;
	745 : FFED;
	746 : 000E;
	747 : FF88;
	748 : FFC6;
	749 : FFB4;
	750 : 004B;
	751 : FF23;
	752 : FFA3;
	753 : FF6D;
	754 : 0003;
	755 : FF2E;
	756 : FFBE;
	757 : 0033;
	758 : FFA2;
	759 : FF9F;
	760 : FEFC;
	761 : FF81;
	762 : 0064;
	763 : 0037;
	764 : 0083;
	765 : FF71;
	766 : FFA1;
	767 : 0023;
	768 : FF99;
	769 : 000E;
	770 : FF84;
	771 : FF60;
	772 : FFB6;
	773 : 0028;
	774 : FF9E;
	775 : FFBD;
	776 : 005A;
	777 : 000C;
	778 : FF5F;
	779 : FF98;
	780 : FEF4;
	781 : 002A;
	782 : FF6E;
	783 : FFAA;
	784 : FFAC;
	785 : FF99;
	786 : FF9E;
	787 : FFF1;
	788 : 0009;
	789 : FFC4;
	790 : FFAA;
	791 : 006D;
	792 : FF9F;
	793 : FFAE;
	794 : FF60;
	795 : FFB5;
	796 : FFCF;
	797 : FF85;
	798 : FF69;
	799 : FFAC;
	800 : 0023;
	801 : 0027;
	802 : FF07;
	803 : FF7F;
	804 : 003E;
	805 : 0003;
	806 : FFEE;
	807 : FFAD;
	808 : FFD9;
	809 : FF8F;
	810 : 0037;
	811 : FFED;
	812 : FF9E;
	813 : 000D;
	814 : FFB3;
	815 : 005E;
	816 : 004F;
	817 : 0087;
	818 : FF95;
	819 : 0021;
	820 : FFB9;
	821 : FFE2;
	822 : FF86;
	823 : FFD6;
	824 : FFA0;
	825 : FFAC;
	826 : FF82;
	827 : 0062;
	828 : 0000;
	829 : FF92;
	830 : 0004;
	831 : FFBF;
	832 : FF9C;
	833 : FFA6;
	834 : FFE7;
	835 : FFFD;
	836 : FFA1;
	837 : FFF4;
	838 : 001A;
	839 : 0013;
	840 : FF81;
	841 : FF43;
	842 : 005F;
	843 : FF13;
	844 : 0044;
	845 : FF4A;
	846 : FF96;
	847 : FFAF;
	848 : 005E;
	849 : FF8C;
	850 : 0012;
	851 : FF5B;
	852 : FF7F;
	853 : FFB4;
	854 : FF93;
	855 : 0092;
	856 : FF9E;
	857 : 002C;
	858 : 0019;
	859 : FF5B;
	860 : FFC9;
	861 : 0067;
	862 : FF91;
	863 : 0056;
	864 : FFDF;
	865 : FFB3;
	866 : FF77;
	867 : FFA8;
	868 : 001C;
	869 : 0009;
	870 : FF8F;
	871 : FFAA;
	872 : FFD2;
	873 : FF7A;
	874 : FF99;
	875 : 001D;
	876 : 0020;
	877 : FF94;
	878 : 004C;
	879 : FFCA;
	880 : FFAB;
	881 : 000E;
	882 : 00BE;
	883 : FF63;
	884 : FF86;
	885 : FF18;
	886 : FF9B;
	887 : FF95;
	888 : FF9D;
	889 : FFA9;
	890 : FF8C;
	891 : FF58;
	892 : FFF8;
	893 : 0029;
	894 : 0011;
	895 : FFB8;
	896 : 0083;
	897 : FEFD;
	898 : FFF1;
	899 : FF92;
	900 : FFA0;
	901 : FF9E;
	902 : FF7E;
	903 : FFA8;
	904 : FFA5;
	905 : FFC8;
	906 : FF2E;
	907 : FFA2;
	908 : FF73;
	909 : FFB0;
	910 : FFDC;
	911 : FF8A;
	912 : 0023;
	913 : FFAC;
	914 : FF9F;
	915 : FFB5;
	916 : 0000;
	917 : FF56;
	918 : FF9F;
	919 : FF79;
	920 : 0013;
	921 : FF8F;
	922 : 0053;
	923 : FFA4;
	924 : FF90;
	925 : 00A1;
	926 : FF93;
	927 : FFAE;
	928 : FF57;
	929 : FFC3;
	930 : 0052;
	931 : 000A;
	932 : FFF2;
	933 : FFD1;
	934 : FFB2;
	935 : 0094;
	936 : FFE6;
	937 : 0065;
	938 : 008E;
	939 : FFB4;
	940 : FFE6;
	941 : FF8C;
	942 : FF9B;
	943 : FFA0;
	944 : 0055;
	945 : FFC8;
	946 : FFAE;
	947 : 0063;
	948 : 0006;
	949 : FFA0;
	950 : FFF7;
	951 : 0004;
	952 : FF7D;
	953 : FF35;
	954 : FF24;
	955 : FFA9;
	956 : FF88;
	957 : FF9E;
	958 : 0033;
	959 : FF9E;
	960 : FFC5;
	961 : FF87;
	962 : FEC1;
	963 : FFAB;
	964 : FFF5;
	965 : FF8D;
	966 : 0049;
	967 : 0034;
	968 : FF25;
	969 : 002F;
	970 : 0006;
	971 : FF4E;
	972 : FFDA;
	973 : 0038;
	974 : FF7F;
	975 : FF83;
	976 : FF76;
	977 : FF67;
	978 : 009D;
	979 : 0014;
	980 : FF9F;
	981 : FF9E;
	982 : FFD6;
	983 : FF3D;
	984 : FF9C;
	985 : FFA6;
	986 : FFAF;
	987 : FF8D;
	988 : FF9E;
	989 : 0034;
	990 : 0029;
	991 : FFA4;
	992 : FFEE;
	993 : 0078;
	994 : FF56;
	995 : FF9E;
	996 : FF67;
	997 : FFA8;
	998 : FF4E;
	999 : FFC2;
	1000 : FF9E;
	1001 : 002F;
	1002 : FFBE;
	1003 : FFEF;
	1004 : FFD4;
	1005 : FF65;
	1006 : FF8E;
	1007 : FF2C;
	1008 : FFB9;
	1009 : 004E;
	1010 : FFF7;
	1011 : 0004;
	1012 : FFBB;
	1013 : 0004;
	1014 : FE66;
	1015 : FFC0;
	1016 : FF63;
	1017 : 0013;
	1018 : FFD4;
	1019 : FFEE;
	1020 : FF8D;
	1021 : 0070;
	1022 : FF68;
	1023 : 001C;
END;
