-- MIF file generated from .npy file
DEPTH = 4096;
WIDTH = 16;
ADDRESS_RADIX = UNS;
DATA_RADIX = HEX;
CONTENT BEGIN
	0 : FEB1;
	1 : 00F8;
	2 : FEFD;
	3 : F93E;
	4 : 0152;
	5 : 02D2;
	6 : FE38;
	7 : FC93;
	8 : 0244;
	9 : 0120;
	10 : FC3E;
	11 : FBE1;
	12 : 032F;
	13 : FEFE;
	14 : FFAE;
	15 : FB1A;
	16 : FD93;
	17 : 0340;
	18 : 03FC;
	19 : 0145;
	20 : FA1B;
	21 : FF2A;
	22 : 0390;
	23 : FE61;
	24 : 03ED;
	25 : FB42;
	26 : FADA;
	27 : 0116;
	28 : FCA2;
	29 : FFA8;
	30 : FF43;
	31 : FB83;
	32 : 01F2;
	33 : FE99;
	34 : 0189;
	35 : FBD2;
	36 : 03E1;
	37 : FD36;
	38 : FD22;
	39 : FC74;
	40 : FF0A;
	41 : 006C;
	42 : 036E;
	43 : FF83;
	44 : 01D8;
	45 : FC2D;
	46 : 0572;
	47 : FEEA;
	48 : FEC9;
	49 : 00B9;
	50 : FBF1;
	51 : 0138;
	52 : FB62;
	53 : FE76;
	54 : FD1B;
	55 : FCA2;
	56 : FF90;
	57 : FBA2;
	58 : FF46;
	59 : 039B;
	60 : 00BD;
	61 : 0259;
	62 : FD9B;
	63 : 0434;
	64 : 05BB;
	65 : FF69;
	66 : FECE;
	67 : FEF3;
	68 : 0341;
	69 : 030D;
	70 : FF37;
	71 : FEF2;
	72 : 0137;
	73 : 03E3;
	74 : FE42;
	75 : 052F;
	76 : 03F6;
	77 : FE8D;
	78 : FF8A;
	79 : FBF5;
	80 : FCDE;
	81 : FCD1;
	82 : FED4;
	83 : FDCC;
	84 : 01F1;
	85 : F9E9;
	86 : 082D;
	87 : FBE1;
	88 : F8BC;
	89 : FE3D;
	90 : 019C;
	91 : 0064;
	92 : FD82;
	93 : 0258;
	94 : 00F5;
	95 : 00BF;
	96 : FCE7;
	97 : FF89;
	98 : 03D3;
	99 : FC7A;
	100 : 0046;
	101 : 01EC;
	102 : FF77;
	103 : F7A3;
	104 : 01BC;
	105 : FAFD;
	106 : FD34;
	107 : 019B;
	108 : FC05;
	109 : FAF4;
	110 : FD3A;
	111 : 04BB;
	112 : FCF8;
	113 : FE66;
	114 : 05B9;
	115 : FF4F;
	116 : 0112;
	117 : FFD0;
	118 : FC8F;
	119 : 0339;
	120 : FE3D;
	121 : 00CA;
	122 : FD38;
	123 : FDA8;
	124 : 03BE;
	125 : FEFE;
	126 : FEC9;
	127 : 061B;
	128 : FF0A;
	129 : FCA1;
	130 : FE31;
	131 : 0051;
	132 : FC74;
	133 : FEA9;
	134 : FF55;
	135 : 03F2;
	136 : 036D;
	137 : 02E7;
	138 : 0119;
	139 : 04D4;
	140 : 007B;
	141 : FC97;
	142 : FEBA;
	143 : 03D5;
	144 : 02FE;
	145 : FC56;
	146 : FDF9;
	147 : FD1F;
	148 : 02DA;
	149 : 00E2;
	150 : 040D;
	151 : FC8B;
	152 : 03C0;
	153 : FD60;
	154 : FB6D;
	155 : F9B6;
	156 : 032F;
	157 : 0399;
	158 : FBAB;
	159 : FAFC;
	160 : 0155;
	161 : 059C;
	162 : FD28;
	163 : FB22;
	164 : 03EE;
	165 : 01D4;
	166 : 013B;
	167 : FE8E;
	168 : FC35;
	169 : FC90;
	170 : 0076;
	171 : FFB0;
	172 : 045C;
	173 : 00F9;
	174 : FBC6;
	175 : FBE0;
	176 : FB97;
	177 : 02C2;
	178 : FF66;
	179 : FFD2;
	180 : 0191;
	181 : 007B;
	182 : FF20;
	183 : 0266;
	184 : 002E;
	185 : 040F;
	186 : 01EF;
	187 : FC28;
	188 : 0220;
	189 : 0077;
	190 : FFD3;
	191 : 039C;
	192 : FFEA;
	193 : 00C3;
	194 : 00D9;
	195 : FD86;
	196 : 0416;
	197 : FD96;
	198 : FDCA;
	199 : 0158;
	200 : FF2C;
	201 : FFF7;
	202 : FFD7;
	203 : 0361;
	204 : 029A;
	205 : FE60;
	206 : 030C;
	207 : 0117;
	208 : FCB9;
	209 : FBC6;
	210 : 012E;
	211 : FF41;
	212 : 014A;
	213 : FE6D;
	214 : FBDF;
	215 : 013D;
	216 : FF8F;
	217 : FE34;
	218 : 0069;
	219 : 0077;
	220 : 018F;
	221 : 017B;
	222 : FD7B;
	223 : 0245;
	224 : FC4A;
	225 : 02F8;
	226 : 03F8;
	227 : 01AB;
	228 : FF4E;
	229 : FF2E;
	230 : 03BC;
	231 : FF50;
	232 : 006E;
	233 : 00D4;
	234 : FCE6;
	235 : 0165;
	236 : 004C;
	237 : 021C;
	238 : 047A;
	239 : FFC0;
	240 : FE97;
	241 : 04DC;
	242 : FC9B;
	243 : 0005;
	244 : 0451;
	245 : FCF9;
	246 : 01BD;
	247 : 0319;
	248 : 016D;
	249 : 028D;
	250 : FB6A;
	251 : 058D;
	252 : 0256;
	253 : 018B;
	254 : 0141;
	255 : FC91;
	256 : 041A;
	257 : 001B;
	258 : 0160;
	259 : FC78;
	260 : F945;
	261 : 0631;
	262 : FC94;
	263 : FA9D;
	264 : 027A;
	265 : 02D1;
	266 : 01E9;
	267 : 0480;
	268 : 0433;
	269 : 0183;
	270 : 0182;
	271 : FC58;
	272 : FFCB;
	273 : FCC3;
	274 : 045E;
	275 : 04EB;
	276 : FB94;
	277 : 0405;
	278 : FF96;
	279 : 00D1;
	280 : FEF1;
	281 : FF90;
	282 : FE18;
	283 : 0457;
	284 : FCE7;
	285 : FCFA;
	286 : FF75;
	287 : FB79;
	288 : FC38;
	289 : FCF8;
	290 : FEE2;
	291 : FE5C;
	292 : FC23;
	293 : FA1E;
	294 : FC84;
	295 : FCCC;
	296 : 008A;
	297 : FD4C;
	298 : 00E9;
	299 : FD62;
	300 : FBBB;
	301 : 03B7;
	302 : 01AE;
	303 : FEC9;
	304 : FB02;
	305 : FCE1;
	306 : FCFB;
	307 : 0458;
	308 : FEB3;
	309 : FC31;
	310 : F730;
	311 : FCD8;
	312 : 0385;
	313 : 06A6;
	314 : FA6A;
	315 : FD81;
	316 : FCB4;
	317 : FCF5;
	318 : 0549;
	319 : 0479;
	320 : 035A;
	321 : FF10;
	322 : 03A3;
	323 : 00A7;
	324 : FC36;
	325 : 0585;
	326 : FB40;
	327 : 0076;
	328 : 0472;
	329 : 03B2;
	330 : FCD3;
	331 : FF0C;
	332 : 00E8;
	333 : 0011;
	334 : FBC5;
	335 : FBC6;
	336 : 0379;
	337 : 034C;
	338 : 028F;
	339 : FFD3;
	340 : FC58;
	341 : 0250;
	342 : 02D3;
	343 : 0407;
	344 : 004F;
	345 : FC44;
	346 : 035D;
	347 : 01EB;
	348 : 0109;
	349 : 029C;
	350 : 01A5;
	351 : FE62;
	352 : FFCE;
	353 : FF06;
	354 : 025F;
	355 : 0262;
	356 : 0294;
	357 : FEE3;
	358 : 0365;
	359 : FE05;
	360 : FD6E;
	361 : 0340;
	362 : 0065;
	363 : 027B;
	364 : 010D;
	365 : 01EF;
	366 : 01FC;
	367 : 0388;
	368 : 0147;
	369 : FBD9;
	370 : FE3B;
	371 : FBA9;
	372 : 03CF;
	373 : 0171;
	374 : 04E6;
	375 : FC37;
	376 : FD9F;
	377 : FD7F;
	378 : FEBE;
	379 : 00EF;
	380 : FF9B;
	381 : 00D9;
	382 : FC11;
	383 : FE31;
	384 : FDE3;
	385 : FC45;
	386 : 036A;
	387 : FDF9;
	388 : FD4B;
	389 : FBF9;
	390 : 048E;
	391 : 0269;
	392 : 00F7;
	393 : 040C;
	394 : 03C3;
	395 : FE0B;
	396 : 0339;
	397 : 045A;
	398 : 0478;
	399 : FD09;
	400 : FC1B;
	401 : 0081;
	402 : FF15;
	403 : FF16;
	404 : FBF1;
	405 : 0058;
	406 : FD10;
	407 : 0673;
	408 : FC42;
	409 : FFDA;
	410 : 007C;
	411 : FC8D;
	412 : 048A;
	413 : 045E;
	414 : 03E2;
	415 : 032E;
	416 : FC57;
	417 : FC43;
	418 : FA79;
	419 : 0627;
	420 : 00B7;
	421 : FDB3;
	422 : 03FE;
	423 : 028F;
	424 : 0121;
	425 : 0586;
	426 : FB32;
	427 : FE9C;
	428 : FF06;
	429 : FDB0;
	430 : 0668;
	431 : FAB6;
	432 : FB0E;
	433 : 05C3;
	434 : FD2B;
	435 : F872;
	436 : FB7B;
	437 : 0019;
	438 : FED7;
	439 : FBC4;
	440 : FF77;
	441 : FFAE;
	442 : 01DD;
	443 : 0511;
	444 : FEED;
	445 : F9D5;
	446 : 044E;
	447 : FB8C;
	448 : FCC3;
	449 : FEF0;
	450 : 0294;
	451 : 0190;
	452 : FF10;
	453 : FC23;
	454 : 0280;
	455 : 021D;
	456 : FEA6;
	457 : FC05;
	458 : FA96;
	459 : 059D;
	460 : FE5D;
	461 : FEBA;
	462 : 0526;
	463 : 006E;
	464 : FDD2;
	465 : FE56;
	466 : FB7A;
	467 : 0379;
	468 : FF00;
	469 : 0144;
	470 : 0528;
	471 : 01E2;
	472 : FC7D;
	473 : FE21;
	474 : FDDE;
	475 : 0447;
	476 : 07AD;
	477 : FA76;
	478 : FCC9;
	479 : 0130;
	480 : 0421;
	481 : 035C;
	482 : FF2C;
	483 : FFF1;
	484 : 0452;
	485 : FFE2;
	486 : 038E;
	487 : 01EC;
	488 : FE1A;
	489 : 026D;
	490 : FD95;
	491 : 01A6;
	492 : 01EF;
	493 : 0232;
	494 : 02CF;
	495 : 000F;
	496 : 04B1;
	497 : 0108;
	498 : 04FE;
	499 : 0340;
	500 : 0772;
	501 : FB7D;
	502 : FD7F;
	503 : FE72;
	504 : 06EC;
	505 : FA87;
	506 : 034A;
	507 : F87B;
	508 : 022D;
	509 : FC4C;
	510 : 04FD;
	511 : 03CE;
	512 : FD30;
	513 : 00AA;
	514 : FD79;
	515 : 045E;
	516 : 0360;
	517 : 002C;
	518 : 02BF;
	519 : 020B;
	520 : FDD0;
	521 : FCC7;
	522 : FCEF;
	523 : 03EA;
	524 : F5D4;
	525 : 0DB8;
	526 : F92C;
	527 : FBED;
	528 : FD95;
	529 : FD0E;
	530 : FCBE;
	531 : FFEF;
	532 : FBB0;
	533 : FF44;
	534 : FE64;
	535 : FF7F;
	536 : 00D4;
	537 : FE49;
	538 : 03AB;
	539 : FAFB;
	540 : FDF0;
	541 : 0322;
	542 : FF4D;
	543 : FDAB;
	544 : FDFA;
	545 : FF51;
	546 : 041C;
	547 : FD2B;
	548 : FBA2;
	549 : 03E9;
	550 : FFE3;
	551 : FF0B;
	552 : FE38;
	553 : 02C6;
	554 : 00BE;
	555 : FBDF;
	556 : FDB3;
	557 : F9F6;
	558 : 033C;
	559 : FD38;
	560 : FCE9;
	561 : 027C;
	562 : FFE1;
	563 : 0294;
	564 : 00EE;
	565 : 03D4;
	566 : FE01;
	567 : 01B7;
	568 : FE0F;
	569 : FFF8;
	570 : 0482;
	571 : FF33;
	572 : 04D2;
	573 : FCB0;
	574 : 02D2;
	575 : FF90;
	576 : FEF1;
	577 : 059F;
	578 : FE84;
	579 : FB56;
	580 : 0427;
	581 : FF51;
	582 : 02AC;
	583 : FD62;
	584 : FB62;
	585 : 01A6;
	586 : 017E;
	587 : FBF3;
	588 : FE58;
	589 : 0002;
	590 : FFDD;
	591 : 0131;
	592 : FAEA;
	593 : FE7D;
	594 : FB9B;
	595 : FEAC;
	596 : FCD2;
	597 : FD6B;
	598 : 02C3;
	599 : FF2D;
	600 : 038F;
	601 : 044C;
	602 : FDB5;
	603 : FE25;
	604 : FFC8;
	605 : 00ED;
	606 : 04BE;
	607 : 007B;
	608 : FE9B;
	609 : 0301;
	610 : 0075;
	611 : 025C;
	612 : 00A9;
	613 : FD01;
	614 : 0375;
	615 : 04EC;
	616 : FC04;
	617 : FAED;
	618 : 00DB;
	619 : FB4D;
	620 : FD27;
	621 : FB9C;
	622 : 01BC;
	623 : FD08;
	624 : FD6F;
	625 : FE4A;
	626 : 01AF;
	627 : 0136;
	628 : 0071;
	629 : FCF2;
	630 : FD9A;
	631 : 0264;
	632 : 030F;
	633 : FE94;
	634 : 04DD;
	635 : 00DE;
	636 : 01D1;
	637 : FD1D;
	638 : FAF4;
	639 : FFF4;
	640 : 006A;
	641 : 08FB;
	642 : F5CD;
	643 : F872;
	644 : 04F6;
	645 : FF67;
	646 : 00BC;
	647 : FF50;
	648 : FE4D;
	649 : 0444;
	650 : FC71;
	651 : 01F9;
	652 : FC78;
	653 : FAA3;
	654 : 0431;
	655 : 00BD;
	656 : FB36;
	657 : 0347;
	658 : FF1A;
	659 : FBCE;
	660 : 0589;
	661 : 054A;
	662 : 0232;
	663 : 008B;
	664 : 036E;
	665 : 0257;
	666 : FD29;
	667 : 0273;
	668 : FF71;
	669 : 002B;
	670 : 02C7;
	671 : 0178;
	672 : 0345;
	673 : 0304;
	674 : 03F1;
	675 : FB5F;
	676 : 029E;
	677 : FB38;
	678 : FA18;
	679 : FCA8;
	680 : FCAF;
	681 : FD79;
	682 : 0107;
	683 : 0074;
	684 : 0275;
	685 : FD2D;
	686 : FEB2;
	687 : 0531;
	688 : 0293;
	689 : 057C;
	690 : FD4A;
	691 : FC80;
	692 : 03A0;
	693 : FAD4;
	694 : 03BD;
	695 : FFED;
	696 : 010C;
	697 : 0256;
	698 : 044B;
	699 : FED4;
	700 : 02D3;
	701 : FBEF;
	702 : FBAF;
	703 : 038D;
	704 : 021E;
	705 : 0157;
	706 : FB87;
	707 : FC58;
	708 : FF5C;
	709 : 00B0;
	710 : 0329;
	711 : FD53;
	712 : FF3F;
	713 : 0229;
	714 : FEDC;
	715 : FC61;
	716 : 0142;
	717 : FBE3;
	718 : FE9A;
	719 : FF51;
	720 : FC48;
	721 : FD8B;
	722 : FB2D;
	723 : 03B0;
	724 : 00AA;
	725 : FC92;
	726 : FD77;
	727 : 0147;
	728 : FEF6;
	729 : 02F7;
	730 : FFF6;
	731 : 0018;
	732 : 0318;
	733 : 02DF;
	734 : 02B3;
	735 : 0017;
	736 : 0029;
	737 : 03B4;
	738 : 02F7;
	739 : 03D6;
	740 : FFD3;
	741 : 0439;
	742 : FD02;
	743 : FD1C;
	744 : FBD3;
	745 : FC2B;
	746 : FB23;
	747 : FFA0;
	748 : FFF9;
	749 : 0276;
	750 : FE2F;
	751 : FC4E;
	752 : 0002;
	753 : FDAF;
	754 : FF0E;
	755 : 0390;
	756 : 0244;
	757 : 024F;
	758 : 0083;
	759 : FB1D;
	760 : 02B7;
	761 : FDD2;
	762 : 0215;
	763 : FD49;
	764 : 0103;
	765 : 0379;
	766 : FDB2;
	767 : 0102;
	768 : FC83;
	769 : FBFD;
	770 : 00FD;
	771 : 03D1;
	772 : FC49;
	773 : 00D1;
	774 : 02C3;
	775 : 0051;
	776 : FC78;
	777 : FED0;
	778 : 065F;
	779 : FC28;
	780 : FEC3;
	781 : 0412;
	782 : FE59;
	783 : 047C;
	784 : FF49;
	785 : 01A5;
	786 : FBC9;
	787 : 01EF;
	788 : FF34;
	789 : FFC2;
	790 : FF10;
	791 : FF55;
	792 : 07A7;
	793 : F788;
	794 : 02D7;
	795 : FFBB;
	796 : 0240;
	797 : 0205;
	798 : 045E;
	799 : FDD2;
	800 : 045C;
	801 : 0026;
	802 : 06A1;
	803 : 026A;
	804 : FFD2;
	805 : 016F;
	806 : FCF4;
	807 : 044D;
	808 : 030E;
	809 : FE82;
	810 : 0103;
	811 : 02CE;
	812 : FD92;
	813 : 01CB;
	814 : 014B;
	815 : FFE6;
	816 : FDB7;
	817 : FC2B;
	818 : 0138;
	819 : 0337;
	820 : 03B8;
	821 : FDDA;
	822 : 0072;
	823 : 0269;
	824 : 00E6;
	825 : FF50;
	826 : 0145;
	827 : 03C2;
	828 : 0095;
	829 : 011D;
	830 : FBC9;
	831 : FB40;
	832 : FEA1;
	833 : FEC5;
	834 : FDF5;
	835 : 0155;
	836 : 010B;
	837 : 001F;
	838 : FD58;
	839 : FACC;
	840 : FE45;
	841 : 0065;
	842 : 031E;
	843 : 02F4;
	844 : FF5F;
	845 : FE7E;
	846 : FBAB;
	847 : FD3C;
	848 : 0246;
	849 : FDA1;
	850 : 012B;
	851 : 0231;
	852 : 0372;
	853 : FC47;
	854 : FEC0;
	855 : 02EC;
	856 : 0263;
	857 : 00F5;
	858 : 00BF;
	859 : 02F7;
	860 : 02FD;
	861 : 014A;
	862 : 038B;
	863 : FD22;
	864 : FAFF;
	865 : 0212;
	866 : 0326;
	867 : FCCB;
	868 : 0014;
	869 : FC7E;
	870 : 02DC;
	871 : FD2D;
	872 : 03C2;
	873 : FEC4;
	874 : 02DB;
	875 : F76B;
	876 : FE1E;
	877 : FA8E;
	878 : FD1E;
	879 : 0610;
	880 : 02A0;
	881 : FF2B;
	882 : 041F;
	883 : 02F8;
	884 : FD2B;
	885 : 065A;
	886 : FB94;
	887 : 01A2;
	888 : FF85;
	889 : 0A64;
	890 : FF5A;
	891 : FC84;
	892 : FFBB;
	893 : FD61;
	894 : 0199;
	895 : FDCC;
	896 : FC76;
	897 : 053F;
	898 : FCF4;
	899 : 042A;
	900 : 05D5;
	901 : 0217;
	902 : 0234;
	903 : 03E7;
	904 : FCFE;
	905 : 047F;
	906 : 02C2;
	907 : 02C3;
	908 : 01B6;
	909 : 018F;
	910 : 02F7;
	911 : FC9F;
	912 : FAF9;
	913 : FFC9;
	914 : 0472;
	915 : FEBA;
	916 : FF3D;
	917 : FDB2;
	918 : FC87;
	919 : FF1E;
	920 : 03FF;
	921 : FED3;
	922 : 03D9;
	923 : 018C;
	924 : 0070;
	925 : 0065;
	926 : 03D7;
	927 : FBE7;
	928 : FD05;
	929 : 0043;
	930 : 0006;
	931 : FFDF;
	932 : FEA8;
	933 : FEB5;
	934 : FB82;
	935 : FF19;
	936 : 054C;
	937 : FF97;
	938 : FB98;
	939 : 00D2;
	940 : 01D0;
	941 : 0251;
	942 : 0332;
	943 : 0242;
	944 : 0427;
	945 : FC0A;
	946 : FD12;
	947 : FE2B;
	948 : FE23;
	949 : 03E7;
	950 : FDCA;
	951 : 02F5;
	952 : FC36;
	953 : FBD0;
	954 : 0464;
	955 : FC73;
	956 : 0122;
	957 : 08D5;
	958 : FB58;
	959 : FA2E;
	960 : FDA4;
	961 : 029C;
	962 : FFB7;
	963 : FC2C;
	964 : 0527;
	965 : 03FD;
	966 : 00D2;
	967 : FDC3;
	968 : 05A5;
	969 : FD01;
	970 : F9AD;
	971 : 026A;
	972 : 0340;
	973 : FFF6;
	974 : 02CC;
	975 : 03F8;
	976 : FBAC;
	977 : 05B3;
	978 : FFFE;
	979 : FF56;
	980 : 0255;
	981 : 019D;
	982 : FC65;
	983 : FEB9;
	984 : 0366;
	985 : 0440;
	986 : 0238;
	987 : 007A;
	988 : 0012;
	989 : 00B5;
	990 : FF53;
	991 : 0384;
	992 : FCCF;
	993 : 02AB;
	994 : 02A3;
	995 : FFA0;
	996 : FD20;
	997 : FF12;
	998 : 009A;
	999 : FAB2;
	1000 : 00AB;
	1001 : FE1B;
	1002 : 0477;
	1003 : 0060;
	1004 : FCDD;
	1005 : 029E;
	1006 : FBA0;
	1007 : 025D;
	1008 : 017A;
	1009 : 022C;
	1010 : 0556;
	1011 : FF47;
	1012 : FD03;
	1013 : 0470;
	1014 : 0185;
	1015 : FCD7;
	1016 : FF80;
	1017 : FF1A;
	1018 : FADD;
	1019 : 0102;
	1020 : FEB4;
	1021 : FC33;
	1022 : FDC6;
	1023 : FD6B;
	1024 : 02B0;
	1025 : 02BE;
	1026 : 0074;
	1027 : FDD1;
	1028 : FFCD;
	1029 : FC58;
	1030 : FA6C;
	1031 : FE2C;
	1032 : 0462;
	1033 : FEC9;
	1034 : FCB7;
	1035 : FF10;
	1036 : 0174;
	1037 : 022D;
	1038 : 0096;
	1039 : FDC5;
	1040 : 040C;
	1041 : FFB6;
	1042 : FFCE;
	1043 : FB7A;
	1044 : 05D0;
	1045 : FCCB;
	1046 : FE52;
	1047 : FD07;
	1048 : FD8A;
	1049 : 00A5;
	1050 : 0470;
	1051 : 01BF;
	1052 : FF99;
	1053 : 01D4;
	1054 : 003E;
	1055 : FBF2;
	1056 : FBCE;
	1057 : FEAD;
	1058 : FA9C;
	1059 : 059C;
	1060 : FCAF;
	1061 : FBC9;
	1062 : 0168;
	1063 : FBAF;
	1064 : FFD2;
	1065 : 0077;
	1066 : 0360;
	1067 : 007D;
	1068 : 0076;
	1069 : 00FA;
	1070 : 0359;
	1071 : FCFB;
	1072 : FC15;
	1073 : 03BF;
	1074 : 0228;
	1075 : 013C;
	1076 : 0271;
	1077 : FD99;
	1078 : 04B7;
	1079 : 032A;
	1080 : 03B6;
	1081 : 026E;
	1082 : 0465;
	1083 : 0461;
	1084 : 04E7;
	1085 : FF4C;
	1086 : FB20;
	1087 : 0125;
	1088 : FC5B;
	1089 : 0288;
	1090 : 0160;
	1091 : 02D8;
	1092 : FBB4;
	1093 : FD9A;
	1094 : 026A;
	1095 : FD5D;
	1096 : FD56;
	1097 : 016C;
	1098 : 0063;
	1099 : FE82;
	1100 : FDE5;
	1101 : FF01;
	1102 : 0376;
	1103 : FAE7;
	1104 : FB74;
	1105 : FE89;
	1106 : FB7B;
	1107 : 012C;
	1108 : 056A;
	1109 : FF53;
	1110 : FF64;
	1111 : FFB6;
	1112 : 02B1;
	1113 : FBCB;
	1114 : FB94;
	1115 : FFA8;
	1116 : 028B;
	1117 : FBC9;
	1118 : 028E;
	1119 : FE0D;
	1120 : 00A0;
	1121 : 0268;
	1122 : FE0E;
	1123 : 02CF;
	1124 : FAC8;
	1125 : F7C9;
	1126 : 02C4;
	1127 : FC63;
	1128 : FBE3;
	1129 : FBEE;
	1130 : 0380;
	1131 : FFF6;
	1132 : FC23;
	1133 : 0353;
	1134 : 055E;
	1135 : 046B;
	1136 : FEAA;
	1137 : 02F1;
	1138 : 034F;
	1139 : 003C;
	1140 : FFBB;
	1141 : FB19;
	1142 : 02CB;
	1143 : FEBD;
	1144 : 0276;
	1145 : FF05;
	1146 : 002B;
	1147 : FECE;
	1148 : FE9A;
	1149 : FBE1;
	1150 : 0529;
	1151 : FE1D;
	1152 : 0269;
	1153 : FBAB;
	1154 : FE94;
	1155 : 0045;
	1156 : FFB2;
	1157 : 037E;
	1158 : 01E1;
	1159 : 0097;
	1160 : FB2D;
	1161 : FDF6;
	1162 : 013C;
	1163 : FAFD;
	1164 : FF14;
	1165 : FD8C;
	1166 : 00E1;
	1167 : FA24;
	1168 : FD22;
	1169 : FD0F;
	1170 : FD51;
	1171 : FDF7;
	1172 : 00EE;
	1173 : FDBF;
	1174 : FC09;
	1175 : 02C2;
	1176 : FEAE;
	1177 : 00F1;
	1178 : F994;
	1179 : FD8C;
	1180 : 0413;
	1181 : FD45;
	1182 : 00DB;
	1183 : 03F3;
	1184 : 0170;
	1185 : 02C9;
	1186 : 00F0;
	1187 : FD86;
	1188 : F89E;
	1189 : 0454;
	1190 : 01AD;
	1191 : 024E;
	1192 : FCB9;
	1193 : FE77;
	1194 : FE33;
	1195 : 00DE;
	1196 : 0238;
	1197 : FDE0;
	1198 : FDEC;
	1199 : FEAF;
	1200 : 02F5;
	1201 : F9D9;
	1202 : 0918;
	1203 : FF14;
	1204 : FAA6;
	1205 : FC07;
	1206 : 00D8;
	1207 : 03E4;
	1208 : FC4B;
	1209 : 03F7;
	1210 : FC0C;
	1211 : FFEB;
	1212 : FD40;
	1213 : 0131;
	1214 : 0011;
	1215 : FCEB;
	1216 : FF90;
	1217 : 0148;
	1218 : 02FB;
	1219 : FFB3;
	1220 : FD02;
	1221 : FFAF;
	1222 : 046C;
	1223 : FC42;
	1224 : 0069;
	1225 : FF24;
	1226 : FEBA;
	1227 : 022E;
	1228 : F8E7;
	1229 : 0663;
	1230 : FD29;
	1231 : 0420;
	1232 : 042E;
	1233 : FE75;
	1234 : FF03;
	1235 : FD34;
	1236 : 00E9;
	1237 : FD51;
	1238 : 01DD;
	1239 : FBC7;
	1240 : 0337;
	1241 : FE46;
	1242 : FE3E;
	1243 : FC9A;
	1244 : FBD7;
	1245 : 0249;
	1246 : 021F;
	1247 : FDE0;
	1248 : FD93;
	1249 : FAC6;
	1250 : FDA4;
	1251 : 0277;
	1252 : FD43;
	1253 : 017E;
	1254 : 00A7;
	1255 : F9DF;
	1256 : FC4B;
	1257 : FD76;
	1258 : FE4C;
	1259 : FC8E;
	1260 : 032E;
	1261 : FAE5;
	1262 : FDDE;
	1263 : 03B2;
	1264 : 023D;
	1265 : 0014;
	1266 : FD3C;
	1267 : 032D;
	1268 : FDBE;
	1269 : 02DB;
	1270 : F8B4;
	1271 : FA51;
	1272 : 0209;
	1273 : FF8E;
	1274 : FB3A;
	1275 : FCB6;
	1276 : F8DB;
	1277 : 0135;
	1278 : 00BE;
	1279 : 0526;
	1280 : 02D7;
	1281 : 02A0;
	1282 : FC6F;
	1283 : 009F;
	1284 : 0160;
	1285 : FD08;
	1286 : 0373;
	1287 : FBBD;
	1288 : FA29;
	1289 : 0575;
	1290 : 0010;
	1291 : FEDA;
	1292 : FC30;
	1293 : FF8D;
	1294 : FFE7;
	1295 : 0470;
	1296 : 033D;
	1297 : 0402;
	1298 : FC56;
	1299 : FA8D;
	1300 : 059F;
	1301 : 028F;
	1302 : 00CD;
	1303 : 0282;
	1304 : 0454;
	1305 : 01E9;
	1306 : FB6F;
	1307 : FF2D;
	1308 : FF49;
	1309 : FC7A;
	1310 : FF00;
	1311 : FC97;
	1312 : FD98;
	1313 : FBDD;
	1314 : FBEA;
	1315 : 0225;
	1316 : 02AC;
	1317 : 051D;
	1318 : 03ED;
	1319 : 0061;
	1320 : 0339;
	1321 : 011A;
	1322 : FE76;
	1323 : FBC7;
	1324 : 0182;
	1325 : FDA9;
	1326 : 03C0;
	1327 : FC1B;
	1328 : 0099;
	1329 : 022B;
	1330 : FF82;
	1331 : 0101;
	1332 : 00F9;
	1333 : FD2E;
	1334 : 01CB;
	1335 : FD6C;
	1336 : 0096;
	1337 : FA5E;
	1338 : FD51;
	1339 : 0038;
	1340 : FCD1;
	1341 : 0588;
	1342 : 037F;
	1343 : FA97;
	1344 : FCF0;
	1345 : FB14;
	1346 : 0442;
	1347 : FC42;
	1348 : 02BA;
	1349 : 0394;
	1350 : FFB6;
	1351 : FAB4;
	1352 : FEFF;
	1353 : 00EA;
	1354 : FAFD;
	1355 : 0276;
	1356 : FD54;
	1357 : 05AC;
	1358 : 0018;
	1359 : FDEF;
	1360 : FDCA;
	1361 : 0405;
	1362 : 035A;
	1363 : FBC5;
	1364 : FEE8;
	1365 : FD45;
	1366 : 0340;
	1367 : FCFA;
	1368 : FBF3;
	1369 : FBC7;
	1370 : 039B;
	1371 : 0179;
	1372 : 05F5;
	1373 : FD77;
	1374 : FEC4;
	1375 : FFD6;
	1376 : 0054;
	1377 : 0225;
	1378 : FFBB;
	1379 : FC24;
	1380 : FDA2;
	1381 : FF51;
	1382 : FD3A;
	1383 : FDC1;
	1384 : 04D5;
	1385 : 02CF;
	1386 : 042B;
	1387 : 006C;
	1388 : FB0D;
	1389 : FD2C;
	1390 : 051F;
	1391 : FBB9;
	1392 : FDE8;
	1393 : 0031;
	1394 : 025C;
	1395 : 031D;
	1396 : FE9D;
	1397 : FBF8;
	1398 : 0104;
	1399 : 040A;
	1400 : 0643;
	1401 : 025F;
	1402 : FFDB;
	1403 : F9C0;
	1404 : 047B;
	1405 : FAF3;
	1406 : FE19;
	1407 : FC44;
	1408 : 02A8;
	1409 : FE5A;
	1410 : 0541;
	1411 : 025F;
	1412 : FB9D;
	1413 : 03D1;
	1414 : 02D3;
	1415 : FE36;
	1416 : FBFA;
	1417 : F848;
	1418 : 04FA;
	1419 : FB67;
	1420 : 01C8;
	1421 : FC42;
	1422 : 03C3;
	1423 : FB00;
	1424 : FD51;
	1425 : 0263;
	1426 : 02AC;
	1427 : 05ED;
	1428 : 04E3;
	1429 : 0072;
	1430 : FE17;
	1431 : 0285;
	1432 : 011A;
	1433 : 004C;
	1434 : FD42;
	1435 : 04FC;
	1436 : FEFC;
	1437 : FD3F;
	1438 : FD71;
	1439 : FB15;
	1440 : FC73;
	1441 : 04BD;
	1442 : 0444;
	1443 : 0205;
	1444 : 0175;
	1445 : 018C;
	1446 : FACB;
	1447 : FFD9;
	1448 : 0098;
	1449 : 043B;
	1450 : FDE8;
	1451 : FB20;
	1452 : FA5F;
	1453 : F87B;
	1454 : FF6F;
	1455 : FEA6;
	1456 : 00BB;
	1457 : FF0B;
	1458 : 0069;
	1459 : 0094;
	1460 : FC62;
	1461 : FD58;
	1462 : 02A8;
	1463 : 01BB;
	1464 : FE8C;
	1465 : 02F1;
	1466 : FD55;
	1467 : 0217;
	1468 : FE30;
	1469 : FDAE;
	1470 : FBB4;
	1471 : FCCD;
	1472 : FC3B;
	1473 : 03F9;
	1474 : 0459;
	1475 : 03EE;
	1476 : 02DB;
	1477 : FE84;
	1478 : 0342;
	1479 : 0322;
	1480 : 0425;
	1481 : FBE1;
	1482 : FB90;
	1483 : FEEC;
	1484 : 0365;
	1485 : FFC4;
	1486 : 0544;
	1487 : FE10;
	1488 : FFC6;
	1489 : FC6E;
	1490 : 0414;
	1491 : FFFC;
	1492 : 033F;
	1493 : 0410;
	1494 : FF0A;
	1495 : FFAF;
	1496 : 0055;
	1497 : 047F;
	1498 : FFF9;
	1499 : FE4B;
	1500 : FBB0;
	1501 : 04B0;
	1502 : 00F9;
	1503 : 03D8;
	1504 : 0237;
	1505 : 01EB;
	1506 : 02E1;
	1507 : FD6F;
	1508 : F84C;
	1509 : 00D1;
	1510 : 000C;
	1511 : FB35;
	1512 : FEA5;
	1513 : 02CC;
	1514 : 05CF;
	1515 : FF15;
	1516 : 0453;
	1517 : FD92;
	1518 : 029B;
	1519 : FF26;
	1520 : FEF7;
	1521 : F9D2;
	1522 : 047B;
	1523 : 001B;
	1524 : 0413;
	1525 : FDF1;
	1526 : FAA1;
	1527 : 03A9;
	1528 : 01C3;
	1529 : FF87;
	1530 : FBE2;
	1531 : 0194;
	1532 : 016A;
	1533 : 02AD;
	1534 : FAA6;
	1535 : FBB9;
	1536 : FD16;
	1537 : FC2A;
	1538 : FC46;
	1539 : 020E;
	1540 : F9F4;
	1541 : FE78;
	1542 : FF0C;
	1543 : 035E;
	1544 : 0452;
	1545 : FC3B;
	1546 : FBB5;
	1547 : FF4D;
	1548 : FC33;
	1549 : 03A9;
	1550 : FDFE;
	1551 : FF32;
	1552 : 00F9;
	1553 : 0024;
	1554 : 0452;
	1555 : FDC8;
	1556 : FC81;
	1557 : FEA0;
	1558 : FE99;
	1559 : FD82;
	1560 : 01F8;
	1561 : FD64;
	1562 : FCC0;
	1563 : FB2C;
	1564 : 0073;
	1565 : 01B2;
	1566 : 07C3;
	1567 : FE3E;
	1568 : 03B1;
	1569 : 0469;
	1570 : FAA2;
	1571 : F914;
	1572 : FCA0;
	1573 : 044F;
	1574 : FF3E;
	1575 : 0028;
	1576 : 0098;
	1577 : FD45;
	1578 : 025C;
	1579 : 01B9;
	1580 : 04E9;
	1581 : FE58;
	1582 : 000B;
	1583 : FBD5;
	1584 : FC1E;
	1585 : FF71;
	1586 : FCA8;
	1587 : 01C2;
	1588 : FC14;
	1589 : FD71;
	1590 : 0116;
	1591 : FBA1;
	1592 : 00D7;
	1593 : 02FB;
	1594 : 02D9;
	1595 : 0248;
	1596 : FA00;
	1597 : 0460;
	1598 : 05E6;
	1599 : FFFC;
	1600 : FD29;
	1601 : FAF9;
	1602 : FBB7;
	1603 : 03EA;
	1604 : FBEA;
	1605 : 04CD;
	1606 : FCE0;
	1607 : FBE1;
	1608 : 0289;
	1609 : FF8C;
	1610 : 0199;
	1611 : 0350;
	1612 : FB52;
	1613 : 035A;
	1614 : FBE1;
	1615 : FDEB;
	1616 : FBCA;
	1617 : 01BA;
	1618 : 036E;
	1619 : FDB6;
	1620 : FE1C;
	1621 : FB2C;
	1622 : FFE4;
	1623 : 0032;
	1624 : 02CF;
	1625 : FB82;
	1626 : 05FA;
	1627 : FF14;
	1628 : FEC7;
	1629 : 0391;
	1630 : 01B3;
	1631 : 0222;
	1632 : FFF5;
	1633 : 01A1;
	1634 : FAC5;
	1635 : 0384;
	1636 : FF88;
	1637 : FFB3;
	1638 : FCB0;
	1639 : 0505;
	1640 : 0106;
	1641 : FF90;
	1642 : F949;
	1643 : FF83;
	1644 : 0079;
	1645 : 0461;
	1646 : 0189;
	1647 : 01CE;
	1648 : FC59;
	1649 : 02F2;
	1650 : 0646;
	1651 : FFB6;
	1652 : 0281;
	1653 : FD3B;
	1654 : FAD9;
	1655 : FD82;
	1656 : FF53;
	1657 : 0340;
	1658 : FC34;
	1659 : FF14;
	1660 : 05F6;
	1661 : 033D;
	1662 : FD4F;
	1663 : FF7E;
	1664 : FAC9;
	1665 : 001E;
	1666 : 0047;
	1667 : 0267;
	1668 : 036D;
	1669 : FCFD;
	1670 : 0045;
	1671 : 0371;
	1672 : FC40;
	1673 : FBDD;
	1674 : FB6F;
	1675 : FBA6;
	1676 : FE7D;
	1677 : FF08;
	1678 : FCE8;
	1679 : FB36;
	1680 : 0350;
	1681 : FE65;
	1682 : FDCA;
	1683 : 0038;
	1684 : 023F;
	1685 : 07CA;
	1686 : F9A0;
	1687 : FD05;
	1688 : 0087;
	1689 : FDD5;
	1690 : FFD7;
	1691 : FC1A;
	1692 : 05AB;
	1693 : 046D;
	1694 : 01E8;
	1695 : FEA1;
	1696 : 0218;
	1697 : FE4A;
	1698 : FB21;
	1699 : 0143;
	1700 : 0519;
	1701 : 0383;
	1702 : 00AA;
	1703 : FA12;
	1704 : FAD3;
	1705 : FEB0;
	1706 : 00E4;
	1707 : FF85;
	1708 : 0213;
	1709 : 00F3;
	1710 : 010C;
	1711 : 0059;
	1712 : FD27;
	1713 : FA66;
	1714 : 0486;
	1715 : FDA6;
	1716 : FDED;
	1717 : FD06;
	1718 : 02CF;
	1719 : 0194;
	1720 : FBE9;
	1721 : 045F;
	1722 : 02DD;
	1723 : 03DA;
	1724 : 0466;
	1725 : FC06;
	1726 : 0217;
	1727 : 011F;
	1728 : FD9B;
	1729 : FDDF;
	1730 : FF5D;
	1731 : FCC0;
	1732 : FF93;
	1733 : 0382;
	1734 : FB99;
	1735 : 01BD;
	1736 : 03DD;
	1737 : 044D;
	1738 : FB78;
	1739 : FF4D;
	1740 : FAE8;
	1741 : 03A8;
	1742 : FF55;
	1743 : FBD8;
	1744 : 0274;
	1745 : FB66;
	1746 : FB5B;
	1747 : 004E;
	1748 : 0119;
	1749 : 0304;
	1750 : 02D2;
	1751 : FE6F;
	1752 : FCB9;
	1753 : FFB0;
	1754 : FE87;
	1755 : FD46;
	1756 : 0289;
	1757 : FE24;
	1758 : FE8E;
	1759 : FE7B;
	1760 : 01C4;
	1761 : 0009;
	1762 : 03D7;
	1763 : FBCA;
	1764 : FD39;
	1765 : FEC7;
	1766 : FDF8;
	1767 : FF07;
	1768 : FC02;
	1769 : 02A1;
	1770 : FFD5;
	1771 : FD46;
	1772 : 0483;
	1773 : FDBE;
	1774 : FF0A;
	1775 : FE07;
	1776 : FC94;
	1777 : FF55;
	1778 : 02A2;
	1779 : 024E;
	1780 : FC0F;
	1781 : FCCA;
	1782 : FDAA;
	1783 : FC53;
	1784 : FC41;
	1785 : FCFF;
	1786 : FD2C;
	1787 : FEFB;
	1788 : FE58;
	1789 : FDFE;
	1790 : FAB1;
	1791 : 04D4;
	1792 : 01D3;
	1793 : FD40;
	1794 : 0277;
	1795 : 01A8;
	1796 : 0185;
	1797 : 0579;
	1798 : 0205;
	1799 : 033A;
	1800 : 0206;
	1801 : FC05;
	1802 : FD43;
	1803 : FD38;
	1804 : FE7C;
	1805 : 0264;
	1806 : 0380;
	1807 : 02EF;
	1808 : 0215;
	1809 : 0419;
	1810 : FFDE;
	1811 : 018F;
	1812 : FC03;
	1813 : FAC9;
	1814 : 03FF;
	1815 : 034C;
	1816 : FF5A;
	1817 : FDD0;
	1818 : FF6D;
	1819 : 018E;
	1820 : 00BA;
	1821 : FF4E;
	1822 : 0581;
	1823 : FD39;
	1824 : 0327;
	1825 : FF8F;
	1826 : 04E9;
	1827 : 03C5;
	1828 : 01EA;
	1829 : FBC2;
	1830 : 033A;
	1831 : FC76;
	1832 : FFCF;
	1833 : FFC9;
	1834 : FF18;
	1835 : 03B2;
	1836 : FF9A;
	1837 : 020D;
	1838 : FEA7;
	1839 : 014D;
	1840 : FCC8;
	1841 : FDCB;
	1842 : FE71;
	1843 : FD84;
	1844 : 035C;
	1845 : 005B;
	1846 : FE47;
	1847 : 01F0;
	1848 : 02E9;
	1849 : FCDB;
	1850 : FBAC;
	1851 : 0288;
	1852 : 0041;
	1853 : 00C4;
	1854 : 06A9;
	1855 : 00D7;
	1856 : FF6F;
	1857 : 01BA;
	1858 : 038C;
	1859 : 0087;
	1860 : FD93;
	1861 : 035A;
	1862 : FE2E;
	1863 : 011A;
	1864 : FA5B;
	1865 : 0385;
	1866 : 03BE;
	1867 : FD63;
	1868 : FD33;
	1869 : FFA3;
	1870 : 04AD;
	1871 : 014B;
	1872 : FF98;
	1873 : 0306;
	1874 : 030B;
	1875 : FC8C;
	1876 : 0030;
	1877 : FE4D;
	1878 : 006D;
	1879 : 0272;
	1880 : 046B;
	1881 : FDE1;
	1882 : FCF6;
	1883 : FE34;
	1884 : 02ED;
	1885 : 0164;
	1886 : FF5B;
	1887 : 001B;
	1888 : 010C;
	1889 : FD35;
	1890 : FA5B;
	1891 : FF41;
	1892 : 035E;
	1893 : FB85;
	1894 : FD7A;
	1895 : 0193;
	1896 : 01BA;
	1897 : 007F;
	1898 : FA83;
	1899 : FA38;
	1900 : FB80;
	1901 : 0195;
	1902 : 02CE;
	1903 : F847;
	1904 : FEBD;
	1905 : FEB1;
	1906 : FF75;
	1907 : FEDC;
	1908 : 0021;
	1909 : 00B6;
	1910 : 0722;
	1911 : FE4A;
	1912 : FA3B;
	1913 : FB84;
	1914 : 0546;
	1915 : FEBC;
	1916 : 04A4;
	1917 : 000A;
	1918 : 0420;
	1919 : FD24;
	1920 : FFA2;
	1921 : 00EF;
	1922 : FF7F;
	1923 : FBBC;
	1924 : FD8B;
	1925 : 0409;
	1926 : 0312;
	1927 : FF39;
	1928 : FF03;
	1929 : 0586;
	1930 : 00B3;
	1931 : FB3E;
	1932 : 037B;
	1933 : FDE0;
	1934 : 039A;
	1935 : FF97;
	1936 : FDF6;
	1937 : 03D4;
	1938 : FD22;
	1939 : 0207;
	1940 : FD61;
	1941 : FC61;
	1942 : FB45;
	1943 : 0332;
	1944 : FF06;
	1945 : FA92;
	1946 : 039F;
	1947 : 044D;
	1948 : 04AE;
	1949 : FB08;
	1950 : 0348;
	1951 : 03F5;
	1952 : FF2F;
	1953 : 03CD;
	1954 : FA72;
	1955 : FF5D;
	1956 : 01A4;
	1957 : FE00;
	1958 : FD20;
	1959 : 01CA;
	1960 : FC5B;
	1961 : 0335;
	1962 : 0479;
	1963 : 02D3;
	1964 : FF66;
	1965 : 040B;
	1966 : 01DF;
	1967 : 0257;
	1968 : FD5B;
	1969 : 0072;
	1970 : FD8C;
	1971 : 0079;
	1972 : FB02;
	1973 : 03CF;
	1974 : FF47;
	1975 : 004D;
	1976 : FA19;
	1977 : 00B8;
	1978 : 02E9;
	1979 : 0002;
	1980 : 02B7;
	1981 : 011E;
	1982 : 0467;
	1983 : FD47;
	1984 : 045F;
	1985 : FAC5;
	1986 : FEA1;
	1987 : F9A3;
	1988 : 0489;
	1989 : 025E;
	1990 : 02CC;
	1991 : FDD4;
	1992 : FBB5;
	1993 : FF94;
	1994 : 0236;
	1995 : FB38;
	1996 : FE2B;
	1997 : 00CB;
	1998 : 0245;
	1999 : 0168;
	2000 : 028C;
	2001 : FF12;
	2002 : 0180;
	2003 : 01A1;
	2004 : 01C0;
	2005 : 0113;
	2006 : FDB7;
	2007 : 030A;
	2008 : FB1E;
	2009 : 0748;
	2010 : F89B;
	2011 : FA5E;
	2012 : FCA5;
	2013 : FF8E;
	2014 : FC0D;
	2015 : FC59;
	2016 : 0327;
	2017 : FE09;
	2018 : 01E7;
	2019 : FDBC;
	2020 : F9FB;
	2021 : FA7B;
	2022 : 020F;
	2023 : FE13;
	2024 : 006C;
	2025 : 0307;
	2026 : FE5D;
	2027 : 0319;
	2028 : FD8B;
	2029 : FDF0;
	2030 : 0149;
	2031 : FD84;
	2032 : 042B;
	2033 : FE8A;
	2034 : FCA6;
	2035 : FD32;
	2036 : 0212;
	2037 : FF83;
	2038 : 0179;
	2039 : 02B0;
	2040 : FE94;
	2041 : 0145;
	2042 : 016D;
	2043 : 047F;
	2044 : FEA4;
	2045 : 00A4;
	2046 : FFBD;
	2047 : 02A9;
	2048 : 03C9;
	2049 : FF2C;
	2050 : FAFD;
	2051 : 055A;
	2052 : 02F1;
	2053 : 04DC;
	2054 : FCD6;
	2055 : 0276;
	2056 : FBC8;
	2057 : FFDD;
	2058 : 008A;
	2059 : FC55;
	2060 : 044C;
	2061 : 007E;
	2062 : 0386;
	2063 : FCD5;
	2064 : 030A;
	2065 : 025D;
	2066 : FF04;
	2067 : 00B2;
	2068 : 026D;
	2069 : 00D6;
	2070 : 0122;
	2071 : 0256;
	2072 : FD9C;
	2073 : 0320;
	2074 : 0100;
	2075 : FE37;
	2076 : FC31;
	2077 : FBF9;
	2078 : FD7B;
	2079 : FD89;
	2080 : FBE5;
	2081 : F947;
	2082 : 0369;
	2083 : 04DA;
	2084 : 0244;
	2085 : FBA4;
	2086 : 02E1;
	2087 : FFCD;
	2088 : 04CA;
	2089 : 0279;
	2090 : FB2A;
	2091 : 00FE;
	2092 : 010C;
	2093 : FBB5;
	2094 : FA2E;
	2095 : 0089;
	2096 : 0165;
	2097 : FD8F;
	2098 : FDC2;
	2099 : 029D;
	2100 : FB05;
	2101 : FC39;
	2102 : FDBB;
	2103 : FFD3;
	2104 : FE67;
	2105 : FF70;
	2106 : FDA9;
	2107 : 045A;
	2108 : 0104;
	2109 : FE89;
	2110 : FD49;
	2111 : 04C8;
	2112 : FB49;
	2113 : FE63;
	2114 : 04B8;
	2115 : FDAA;
	2116 : 0036;
	2117 : 01B6;
	2118 : FF4E;
	2119 : FC85;
	2120 : 0358;
	2121 : FEBF;
	2122 : F908;
	2123 : FEBC;
	2124 : FF29;
	2125 : FD5E;
	2126 : FF8B;
	2127 : 0112;
	2128 : 025F;
	2129 : FBC9;
	2130 : 039C;
	2131 : FE22;
	2132 : F82B;
	2133 : 06C2;
	2134 : 0428;
	2135 : FF3E;
	2136 : 00A2;
	2137 : FBF2;
	2138 : FCC9;
	2139 : 024D;
	2140 : 0413;
	2141 : 0061;
	2142 : F908;
	2143 : FBAD;
	2144 : 01B9;
	2145 : FD5A;
	2146 : 0689;
	2147 : 02C9;
	2148 : 050A;
	2149 : 02C8;
	2150 : FCE7;
	2151 : 0428;
	2152 : FC4E;
	2153 : FCAA;
	2154 : 00C5;
	2155 : FAF4;
	2156 : 03CE;
	2157 : 03CA;
	2158 : 037E;
	2159 : 043A;
	2160 : FCB5;
	2161 : FF28;
	2162 : FDA1;
	2163 : 0039;
	2164 : 0397;
	2165 : FC92;
	2166 : 0194;
	2167 : FC96;
	2168 : 03E2;
	2169 : 002C;
	2170 : FB72;
	2171 : 0340;
	2172 : 038D;
	2173 : FDE1;
	2174 : 0080;
	2175 : 0444;
	2176 : 0007;
	2177 : FC85;
	2178 : FDF5;
	2179 : 0430;
	2180 : FC64;
	2181 : FF07;
	2182 : FBED;
	2183 : FFA1;
	2184 : FA1B;
	2185 : FF7B;
	2186 : 02AA;
	2187 : 0450;
	2188 : 01DA;
	2189 : 05A8;
	2190 : FFBC;
	2191 : 000C;
	2192 : 030E;
	2193 : FD90;
	2194 : FDE1;
	2195 : FBB1;
	2196 : 01B2;
	2197 : FDB0;
	2198 : 01FA;
	2199 : 07A8;
	2200 : FF43;
	2201 : FF2C;
	2202 : FFCE;
	2203 : 0318;
	2204 : FED3;
	2205 : FC7E;
	2206 : FA8A;
	2207 : 0142;
	2208 : 0037;
	2209 : FE09;
	2210 : FD27;
	2211 : 02AF;
	2212 : FC77;
	2213 : 036B;
	2214 : 00B1;
	2215 : FE28;
	2216 : 0262;
	2217 : 043B;
	2218 : 021D;
	2219 : FDDA;
	2220 : FEEB;
	2221 : FBF8;
	2222 : 02E6;
	2223 : 0003;
	2224 : FFBC;
	2225 : FF86;
	2226 : 0542;
	2227 : 006F;
	2228 : FF26;
	2229 : 03C9;
	2230 : 0476;
	2231 : 01B3;
	2232 : FDA6;
	2233 : FF5B;
	2234 : FE06;
	2235 : FC6B;
	2236 : FE34;
	2237 : 02CA;
	2238 : FDB6;
	2239 : 035A;
	2240 : FC7B;
	2241 : FE4C;
	2242 : FCA7;
	2243 : FF60;
	2244 : 0488;
	2245 : 04AE;
	2246 : FE14;
	2247 : FA31;
	2248 : 01A9;
	2249 : FDA1;
	2250 : 0333;
	2251 : FF0B;
	2252 : 0000;
	2253 : 040A;
	2254 : FE14;
	2255 : FE99;
	2256 : F8ED;
	2257 : FE6B;
	2258 : FFF1;
	2259 : FBA5;
	2260 : FCB8;
	2261 : 00FF;
	2262 : 00FD;
	2263 : FF9C;
	2264 : F866;
	2265 : 022C;
	2266 : FFBC;
	2267 : FCE6;
	2268 : F97E;
	2269 : FEF1;
	2270 : 04DA;
	2271 : FD76;
	2272 : FE78;
	2273 : FDFE;
	2274 : FF93;
	2275 : 01C4;
	2276 : FB14;
	2277 : FD06;
	2278 : 0087;
	2279 : 0062;
	2280 : FC45;
	2281 : FE35;
	2282 : FF12;
	2283 : 051E;
	2284 : 0253;
	2285 : 05EB;
	2286 : FC40;
	2287 : F8A9;
	2288 : 033D;
	2289 : FE14;
	2290 : FE99;
	2291 : FC21;
	2292 : FFE3;
	2293 : 0382;
	2294 : 026D;
	2295 : 0253;
	2296 : 0121;
	2297 : FD9A;
	2298 : FDA9;
	2299 : FA86;
	2300 : FDF4;
	2301 : F50F;
	2302 : 0E86;
	2303 : F7E0;
	2304 : 029A;
	2305 : FDD8;
	2306 : FC8C;
	2307 : 0225;
	2308 : FD4A;
	2309 : 00B7;
	2310 : 0385;
	2311 : 00A5;
	2312 : FE31;
	2313 : 01E4;
	2314 : 03FE;
	2315 : FD6B;
	2316 : FCB5;
	2317 : 0158;
	2318 : 042C;
	2319 : 03D7;
	2320 : FC24;
	2321 : 0428;
	2322 : FE00;
	2323 : 0390;
	2324 : FCEF;
	2325 : FFD4;
	2326 : FF43;
	2327 : FCA5;
	2328 : 029B;
	2329 : FC21;
	2330 : 020C;
	2331 : FCA8;
	2332 : FFE0;
	2333 : FF9B;
	2334 : FE13;
	2335 : 02C4;
	2336 : 01A2;
	2337 : 013C;
	2338 : 02D0;
	2339 : FE2F;
	2340 : 039A;
	2341 : 00D2;
	2342 : 012B;
	2343 : FEAB;
	2344 : FE3A;
	2345 : FBD3;
	2346 : FEE5;
	2347 : FF26;
	2348 : 0405;
	2349 : 023E;
	2350 : 01B2;
	2351 : FE0E;
	2352 : 022C;
	2353 : 039E;
	2354 : FF5D;
	2355 : 040C;
	2356 : FD2E;
	2357 : FC97;
	2358 : FB39;
	2359 : FF58;
	2360 : FC81;
	2361 : 0082;
	2362 : 0052;
	2363 : 01F3;
	2364 : FC39;
	2365 : 009E;
	2366 : 0383;
	2367 : FDD9;
	2368 : 0046;
	2369 : 01D1;
	2370 : 0332;
	2371 : FC69;
	2372 : 03A6;
	2373 : 01E7;
	2374 : FE41;
	2375 : 03C1;
	2376 : 03DA;
	2377 : FB97;
	2378 : FC74;
	2379 : 0029;
	2380 : FF0E;
	2381 : 007D;
	2382 : 04E0;
	2383 : FF8E;
	2384 : FDF9;
	2385 : F9D8;
	2386 : FE9B;
	2387 : 06C2;
	2388 : FDC4;
	2389 : 0136;
	2390 : 0151;
	2391 : 0182;
	2392 : 01A4;
	2393 : 0104;
	2394 : FD23;
	2395 : FEC4;
	2396 : 04C1;
	2397 : 03FC;
	2398 : 013C;
	2399 : FEE0;
	2400 : FD26;
	2401 : 035E;
	2402 : FA6C;
	2403 : 0597;
	2404 : 04E9;
	2405 : FFB0;
	2406 : FC49;
	2407 : FCC6;
	2408 : 0624;
	2409 : FDA8;
	2410 : FC89;
	2411 : FEB4;
	2412 : 03EA;
	2413 : FFAA;
	2414 : FB93;
	2415 : 000E;
	2416 : FD76;
	2417 : 016C;
	2418 : 041B;
	2419 : 0299;
	2420 : 02A9;
	2421 : 03D7;
	2422 : 034A;
	2423 : 01DE;
	2424 : 01BB;
	2425 : 01CA;
	2426 : FC57;
	2427 : 0050;
	2428 : 06A2;
	2429 : 0020;
	2430 : FED5;
	2431 : 01EF;
	2432 : FAD7;
	2433 : F915;
	2434 : 0C76;
	2435 : F5EC;
	2436 : 0060;
	2437 : 0384;
	2438 : F716;
	2439 : FADC;
	2440 : FC3F;
	2441 : 00B6;
	2442 : 033E;
	2443 : 01E6;
	2444 : 032C;
	2445 : 0091;
	2446 : FEA1;
	2447 : 0074;
	2448 : FD4D;
	2449 : FBB2;
	2450 : FCDA;
	2451 : FF6D;
	2452 : 006D;
	2453 : FE55;
	2454 : FFF0;
	2455 : 037B;
	2456 : FFD7;
	2457 : FEF8;
	2458 : 02C9;
	2459 : FF79;
	2460 : 0003;
	2461 : FC23;
	2462 : 013E;
	2463 : 0380;
	2464 : FE70;
	2465 : 0304;
	2466 : FC37;
	2467 : FD34;
	2468 : FB01;
	2469 : 0208;
	2470 : 043E;
	2471 : FB35;
	2472 : FEF9;
	2473 : 01E5;
	2474 : FEA3;
	2475 : 03E7;
	2476 : FD41;
	2477 : 0123;
	2478 : 03F3;
	2479 : 022D;
	2480 : 00C1;
	2481 : FF5C;
	2482 : FE43;
	2483 : FC71;
	2484 : FDCD;
	2485 : 0436;
	2486 : FC55;
	2487 : 0384;
	2488 : 03B7;
	2489 : FF0A;
	2490 : FFE4;
	2491 : FC86;
	2492 : FEA3;
	2493 : 00A6;
	2494 : 0123;
	2495 : FF50;
	2496 : 0260;
	2497 : 0297;
	2498 : FD66;
	2499 : 00A7;
	2500 : 0025;
	2501 : 0154;
	2502 : 0365;
	2503 : FF31;
	2504 : FDCC;
	2505 : 04D1;
	2506 : FDF1;
	2507 : FEA8;
	2508 : FFB3;
	2509 : 0039;
	2510 : 0085;
	2511 : FE19;
	2512 : F9B6;
	2513 : 0403;
	2514 : FF7E;
	2515 : FDE7;
	2516 : F85C;
	2517 : 037D;
	2518 : 012C;
	2519 : F5D0;
	2520 : FF48;
	2521 : FE32;
	2522 : FE2B;
	2523 : FCD7;
	2524 : 0575;
	2525 : FCD2;
	2526 : 01D8;
	2527 : 030C;
	2528 : FFEE;
	2529 : 0538;
	2530 : 054F;
	2531 : FB78;
	2532 : FE97;
	2533 : FFB9;
	2534 : 03D8;
	2535 : 033F;
	2536 : 018E;
	2537 : FE94;
	2538 : 0021;
	2539 : 025E;
	2540 : 00C6;
	2541 : 002F;
	2542 : FE28;
	2543 : 0167;
	2544 : 0016;
	2545 : FF65;
	2546 : FC23;
	2547 : 0068;
	2548 : F945;
	2549 : 00D6;
	2550 : 03D5;
	2551 : FBB3;
	2552 : 0179;
	2553 : FD1E;
	2554 : 02C6;
	2555 : FE87;
	2556 : 02DA;
	2557 : FF65;
	2558 : 0099;
	2559 : 0447;
	2560 : FF78;
	2561 : FDBD;
	2562 : F9D6;
	2563 : FC6D;
	2564 : 0216;
	2565 : 03EA;
	2566 : 01F9;
	2567 : FFD0;
	2568 : FAFD;
	2569 : FC26;
	2570 : 00E3;
	2571 : 01C5;
	2572 : 04B3;
	2573 : 05CD;
	2574 : 01AB;
	2575 : 0007;
	2576 : F88A;
	2577 : 0605;
	2578 : FD7F;
	2579 : FF81;
	2580 : FF91;
	2581 : 0410;
	2582 : FD21;
	2583 : FF6B;
	2584 : 02DB;
	2585 : 0450;
	2586 : FC42;
	2587 : FC88;
	2588 : F6FB;
	2589 : 0000;
	2590 : 004D;
	2591 : 004F;
	2592 : 0302;
	2593 : 0420;
	2594 : 005E;
	2595 : 025F;
	2596 : FEF6;
	2597 : FC4B;
	2598 : FE8F;
	2599 : FDBB;
	2600 : 0022;
	2601 : 001A;
	2602 : FF5A;
	2603 : FD27;
	2604 : 0220;
	2605 : FCF8;
	2606 : 0591;
	2607 : 04E7;
	2608 : 02D3;
	2609 : FF17;
	2610 : FC01;
	2611 : FA70;
	2612 : 0365;
	2613 : FDA9;
	2614 : FBC2;
	2615 : 03B9;
	2616 : FF73;
	2617 : FBEF;
	2618 : FFAB;
	2619 : FEAC;
	2620 : FDA9;
	2621 : FCEA;
	2622 : 0119;
	2623 : FDFE;
	2624 : 02D5;
	2625 : 00C9;
	2626 : FC98;
	2627 : FB5F;
	2628 : 01B0;
	2629 : FC90;
	2630 : 02BC;
	2631 : 03F8;
	2632 : 0155;
	2633 : FCAE;
	2634 : 0323;
	2635 : FEFA;
	2636 : FCD2;
	2637 : 00CF;
	2638 : 046A;
	2639 : FFDC;
	2640 : FCBB;
	2641 : FCD0;
	2642 : FCF8;
	2643 : 031C;
	2644 : FE50;
	2645 : 0418;
	2646 : FCC7;
	2647 : 03C0;
	2648 : 018A;
	2649 : 018C;
	2650 : FA6D;
	2651 : 0166;
	2652 : FB52;
	2653 : 0541;
	2654 : 018D;
	2655 : FC47;
	2656 : 02F7;
	2657 : FFE2;
	2658 : FF29;
	2659 : 016E;
	2660 : 029A;
	2661 : 00D2;
	2662 : FCD7;
	2663 : FCDC;
	2664 : FF9D;
	2665 : 0441;
	2666 : FF88;
	2667 : FB8F;
	2668 : FFDB;
	2669 : FE33;
	2670 : F85C;
	2671 : FFB6;
	2672 : 0079;
	2673 : 038D;
	2674 : 0160;
	2675 : FD5B;
	2676 : FFDD;
	2677 : FEA1;
	2678 : 03D8;
	2679 : FF82;
	2680 : 03D0;
	2681 : FD8C;
	2682 : 0198;
	2683 : FFDD;
	2684 : 02FA;
	2685 : 045E;
	2686 : 0174;
	2687 : 0459;
	2688 : 0630;
	2689 : FE6B;
	2690 : 06D8;
	2691 : F90C;
	2692 : 0429;
	2693 : FF79;
	2694 : FCE2;
	2695 : FD56;
	2696 : FCCD;
	2697 : FEE8;
	2698 : 038E;
	2699 : FE73;
	2700 : 02F6;
	2701 : 03A3;
	2702 : 0436;
	2703 : 02BC;
	2704 : FCCE;
	2705 : FBEA;
	2706 : FFE8;
	2707 : 03D5;
	2708 : FC71;
	2709 : 0295;
	2710 : FBF6;
	2711 : 0017;
	2712 : FFFB;
	2713 : 0110;
	2714 : 0118;
	2715 : 0233;
	2716 : 03BE;
	2717 : 0496;
	2718 : 02DB;
	2719 : F92D;
	2720 : 00FE;
	2721 : FE33;
	2722 : 0019;
	2723 : 044B;
	2724 : 001B;
	2725 : FB35;
	2726 : FCBC;
	2727 : 015C;
	2728 : 019F;
	2729 : 01F7;
	2730 : 0171;
	2731 : 0487;
	2732 : FCE2;
	2733 : 039B;
	2734 : 0140;
	2735 : FE96;
	2736 : 02E5;
	2737 : 0122;
	2738 : FF01;
	2739 : 010B;
	2740 : 01E6;
	2741 : 0012;
	2742 : FF59;
	2743 : FEAB;
	2744 : FD42;
	2745 : FF46;
	2746 : FE3D;
	2747 : FC33;
	2748 : 02DE;
	2749 : FDD7;
	2750 : 031B;
	2751 : 009B;
	2752 : FD12;
	2753 : 05EC;
	2754 : FFD1;
	2755 : 0146;
	2756 : FA7A;
	2757 : 0297;
	2758 : 0251;
	2759 : FBF2;
	2760 : FF09;
	2761 : 0256;
	2762 : 00D6;
	2763 : FCEF;
	2764 : FE1B;
	2765 : FF69;
	2766 : FD53;
	2767 : 0068;
	2768 : 040C;
	2769 : FF69;
	2770 : 027C;
	2771 : 0451;
	2772 : 01A0;
	2773 : FC46;
	2774 : FA7A;
	2775 : FDC5;
	2776 : 0072;
	2777 : FCC3;
	2778 : FC0D;
	2779 : 0459;
	2780 : 03B3;
	2781 : F876;
	2782 : 0677;
	2783 : FE0A;
	2784 : 00E5;
	2785 : FC6A;
	2786 : 0259;
	2787 : 0353;
	2788 : 036C;
	2789 : 01B9;
	2790 : FFDF;
	2791 : 0141;
	2792 : 0030;
	2793 : FB7A;
	2794 : 0255;
	2795 : 0520;
	2796 : FC96;
	2797 : FFCD;
	2798 : 058E;
	2799 : FF8A;
	2800 : FB11;
	2801 : 03CE;
	2802 : FE10;
	2803 : FC06;
	2804 : 023F;
	2805 : 02F5;
	2806 : FABF;
	2807 : 0286;
	2808 : 0457;
	2809 : FE10;
	2810 : FFF2;
	2811 : FC90;
	2812 : 023B;
	2813 : FDF9;
	2814 : 0425;
	2815 : FC5F;
	2816 : 04D1;
	2817 : 03D8;
	2818 : 018D;
	2819 : 011F;
	2820 : 018D;
	2821 : 033A;
	2822 : FF5E;
	2823 : 0342;
	2824 : FEB5;
	2825 : FEA1;
	2826 : 0047;
	2827 : 0389;
	2828 : FF1C;
	2829 : 00F6;
	2830 : FFA3;
	2831 : FD2A;
	2832 : FFE2;
	2833 : F743;
	2834 : 07D5;
	2835 : FF12;
	2836 : 033D;
	2837 : 01EA;
	2838 : FC4C;
	2839 : 03C8;
	2840 : FF9A;
	2841 : FE17;
	2842 : FF9C;
	2843 : 0160;
	2844 : FE60;
	2845 : 037D;
	2846 : FA56;
	2847 : 0076;
	2848 : FC01;
	2849 : FCF0;
	2850 : 011A;
	2851 : 01D7;
	2852 : FF0E;
	2853 : FE4C;
	2854 : FD40;
	2855 : FF0A;
	2856 : 03A0;
	2857 : FB17;
	2858 : 0500;
	2859 : FCD6;
	2860 : F955;
	2861 : 0377;
	2862 : 00B5;
	2863 : FC6D;
	2864 : 0452;
	2865 : FBC1;
	2866 : 06BE;
	2867 : FDCE;
	2868 : 0442;
	2869 : 013E;
	2870 : FC32;
	2871 : 01BB;
	2872 : FCC9;
	2873 : 05EC;
	2874 : FCD1;
	2875 : FD1E;
	2876 : FD77;
	2877 : FFF4;
	2878 : 0361;
	2879 : 0269;
	2880 : F9CB;
	2881 : FE21;
	2882 : FCFC;
	2883 : 026B;
	2884 : FDF1;
	2885 : 0066;
	2886 : 0420;
	2887 : 0152;
	2888 : FCB0;
	2889 : 0197;
	2890 : FD33;
	2891 : FF94;
	2892 : 000B;
	2893 : FC1A;
	2894 : FD10;
	2895 : 0149;
	2896 : FDE1;
	2897 : FB61;
	2898 : FD80;
	2899 : 0274;
	2900 : FCF6;
	2901 : F9B3;
	2902 : FCB3;
	2903 : 0455;
	2904 : 0100;
	2905 : 00E2;
	2906 : 006A;
	2907 : FF9D;
	2908 : F9B1;
	2909 : FE23;
	2910 : FBCA;
	2911 : 0443;
	2912 : 0356;
	2913 : 042E;
	2914 : FC3C;
	2915 : FC84;
	2916 : 0368;
	2917 : FEEE;
	2918 : FC5E;
	2919 : 041D;
	2920 : FDDC;
	2921 : FBB8;
	2922 : FE6B;
	2923 : FAE9;
	2924 : 069A;
	2925 : FD4C;
	2926 : FFF7;
	2927 : FF8C;
	2928 : 022E;
	2929 : 005C;
	2930 : 032E;
	2931 : FFBE;
	2932 : 02D5;
	2933 : FDA8;
	2934 : 0184;
	2935 : 042D;
	2936 : 029B;
	2937 : 04E3;
	2938 : FB8B;
	2939 : FDA6;
	2940 : FDEC;
	2941 : 01F9;
	2942 : 0217;
	2943 : 02C2;
	2944 : FD3F;
	2945 : 01AA;
	2946 : 0362;
	2947 : FFA5;
	2948 : FB85;
	2949 : FD5A;
	2950 : FC18;
	2951 : FD61;
	2952 : F9B4;
	2953 : FE60;
	2954 : 0814;
	2955 : F9F7;
	2956 : FFC5;
	2957 : FECB;
	2958 : FFA2;
	2959 : FEFF;
	2960 : FFA9;
	2961 : FDE5;
	2962 : FC9B;
	2963 : FE5D;
	2964 : FAC7;
	2965 : 047C;
	2966 : 042F;
	2967 : FFD6;
	2968 : FD12;
	2969 : FBCE;
	2970 : FD09;
	2971 : FF4D;
	2972 : FF8D;
	2973 : 03EB;
	2974 : 00F0;
	2975 : FE56;
	2976 : FCF2;
	2977 : 03CE;
	2978 : 0257;
	2979 : 03C4;
	2980 : FDC2;
	2981 : 04BC;
	2982 : F9FD;
	2983 : FF0A;
	2984 : 013F;
	2985 : FFD7;
	2986 : 035F;
	2987 : 02DD;
	2988 : FC0D;
	2989 : 023F;
	2990 : 004C;
	2991 : 0020;
	2992 : FE29;
	2993 : 02D8;
	2994 : 0499;
	2995 : FE04;
	2996 : FEBD;
	2997 : FE5A;
	2998 : FE63;
	2999 : FC9D;
	3000 : FF5C;
	3001 : FC8A;
	3002 : 0400;
	3003 : 02BA;
	3004 : 002F;
	3005 : 014E;
	3006 : 015D;
	3007 : 0298;
	3008 : 0297;
	3009 : 0152;
	3010 : 00DD;
	3011 : FD79;
	3012 : FB81;
	3013 : 0164;
	3014 : 0350;
	3015 : 02D3;
	3016 : FBD8;
	3017 : 01EC;
	3018 : 0251;
	3019 : F865;
	3020 : 03C6;
	3021 : 036B;
	3022 : FD9D;
	3023 : F991;
	3024 : 02F4;
	3025 : FC5A;
	3026 : 00AD;
	3027 : 0497;
	3028 : FF1D;
	3029 : 006D;
	3030 : FBB2;
	3031 : F8BF;
	3032 : FF8D;
	3033 : FC5E;
	3034 : FF32;
	3035 : 017A;
	3036 : 020C;
	3037 : FFCB;
	3038 : FF0A;
	3039 : FBDB;
	3040 : FD0B;
	3041 : FEA6;
	3042 : FC97;
	3043 : FFBC;
	3044 : 055E;
	3045 : 02C8;
	3046 : FA98;
	3047 : 0415;
	3048 : FD58;
	3049 : FC3E;
	3050 : 04B8;
	3051 : 0705;
	3052 : FE10;
	3053 : FDD4;
	3054 : FF19;
	3055 : 00D5;
	3056 : FCA3;
	3057 : FAD8;
	3058 : 009A;
	3059 : 0303;
	3060 : FE15;
	3061 : FBF3;
	3062 : 02CA;
	3063 : FEFD;
	3064 : FC91;
	3065 : FF42;
	3066 : FE65;
	3067 : FFE0;
	3068 : FF37;
	3069 : FB6D;
	3070 : 001C;
	3071 : FAF1;
	3072 : 016D;
	3073 : 01FF;
	3074 : FD8C;
	3075 : 023A;
	3076 : FCE6;
	3077 : FBE0;
	3078 : 01AD;
	3079 : 0412;
	3080 : 0030;
	3081 : FC87;
	3082 : FFC3;
	3083 : FF15;
	3084 : 0046;
	3085 : 00FA;
	3086 : 0081;
	3087 : 0157;
	3088 : FDE8;
	3089 : FF1D;
	3090 : FEF0;
	3091 : 00F9;
	3092 : FCA6;
	3093 : 026A;
	3094 : FE6D;
	3095 : 0577;
	3096 : FB1D;
	3097 : FB95;
	3098 : FF64;
	3099 : 0105;
	3100 : 0039;
	3101 : 079D;
	3102 : FB1A;
	3103 : 0123;
	3104 : FF05;
	3105 : 00F6;
	3106 : FC30;
	3107 : 04B6;
	3108 : 0354;
	3109 : FC51;
	3110 : FC8E;
	3111 : 0193;
	3112 : FF63;
	3113 : FE7B;
	3114 : 0327;
	3115 : FBDD;
	3116 : FC84;
	3117 : FFD0;
	3118 : 015C;
	3119 : 015A;
	3120 : 006B;
	3121 : FF6C;
	3122 : FC72;
	3123 : FB6F;
	3124 : 0377;
	3125 : FABC;
	3126 : FD90;
	3127 : FE99;
	3128 : FD9B;
	3129 : FE1F;
	3130 : FEDA;
	3131 : FF51;
	3132 : 0073;
	3133 : FD7F;
	3134 : FF28;
	3135 : FDD2;
	3136 : FE7E;
	3137 : 0393;
	3138 : FCFB;
	3139 : FD65;
	3140 : FDE5;
	3141 : FC6E;
	3142 : 0247;
	3143 : FD81;
	3144 : FD79;
	3145 : FC8F;
	3146 : FDD0;
	3147 : 0480;
	3148 : FCCC;
	3149 : FC3B;
	3150 : 035F;
	3151 : FBEA;
	3152 : FE11;
	3153 : FD52;
	3154 : FC3A;
	3155 : 01AD;
	3156 : FC50;
	3157 : 031E;
	3158 : 0219;
	3159 : FC6B;
	3160 : FFBD;
	3161 : FB72;
	3162 : 02D0;
	3163 : 00E9;
	3164 : 009B;
	3165 : FF3F;
	3166 : 017F;
	3167 : 06E7;
	3168 : 054C;
	3169 : 05B4;
	3170 : FAFA;
	3171 : FF57;
	3172 : 0197;
	3173 : 03E6;
	3174 : 03D6;
	3175 : FC12;
	3176 : 02A1;
	3177 : 037B;
	3178 : 03D0;
	3179 : FD73;
	3180 : 019D;
	3181 : FF20;
	3182 : FD0E;
	3183 : FF58;
	3184 : 0419;
	3185 : 042D;
	3186 : 02AA;
	3187 : FC3D;
	3188 : FF47;
	3189 : 034A;
	3190 : 0219;
	3191 : 00B0;
	3192 : 0032;
	3193 : 0139;
	3194 : FF7A;
	3195 : 01F2;
	3196 : 02E5;
	3197 : 018E;
	3198 : 0017;
	3199 : FB3C;
	3200 : FAF1;
	3201 : FDA7;
	3202 : 044C;
	3203 : 01C5;
	3204 : 00CE;
	3205 : FC2D;
	3206 : FD24;
	3207 : FEE5;
	3208 : 0058;
	3209 : FD05;
	3210 : FCB7;
	3211 : FBD4;
	3212 : 043E;
	3213 : FDD5;
	3214 : 01FD;
	3215 : FD5D;
	3216 : FF92;
	3217 : FA54;
	3218 : 0291;
	3219 : FF61;
	3220 : 03B6;
	3221 : FE53;
	3222 : 0176;
	3223 : FA4A;
	3224 : FE39;
	3225 : 04D1;
	3226 : 02C9;
	3227 : FED8;
	3228 : 037B;
	3229 : 043F;
	3230 : 003F;
	3231 : FEBA;
	3232 : 0123;
	3233 : FFD5;
	3234 : FB51;
	3235 : FA51;
	3236 : FF4E;
	3237 : 0138;
	3238 : FDEF;
	3239 : 013F;
	3240 : F9BB;
	3241 : 0814;
	3242 : FA98;
	3243 : F84B;
	3244 : 003A;
	3245 : 01A9;
	3246 : FD9D;
	3247 : 0315;
	3248 : 01CB;
	3249 : FCEB;
	3250 : 038A;
	3251 : FCA5;
	3252 : FB2F;
	3253 : FAB1;
	3254 : 03AA;
	3255 : FD77;
	3256 : 0168;
	3257 : 014D;
	3258 : FE2C;
	3259 : 0365;
	3260 : FAB6;
	3261 : 0545;
	3262 : 0435;
	3263 : FD53;
	3264 : 0371;
	3265 : FEA0;
	3266 : 0414;
	3267 : FFDA;
	3268 : FF21;
	3269 : FC37;
	3270 : FD46;
	3271 : 0280;
	3272 : FF1E;
	3273 : FE3A;
	3274 : FD8C;
	3275 : 038B;
	3276 : 02F5;
	3277 : FEC1;
	3278 : FA12;
	3279 : 00AF;
	3280 : FC8D;
	3281 : 02ED;
	3282 : FF97;
	3283 : FEC4;
	3284 : 054B;
	3285 : FDAB;
	3286 : FC0E;
	3287 : 0142;
	3288 : 01D5;
	3289 : 06BE;
	3290 : FA4F;
	3291 : FDE2;
	3292 : 0161;
	3293 : 0103;
	3294 : 013F;
	3295 : FF9A;
	3296 : FDE6;
	3297 : 0484;
	3298 : FE13;
	3299 : 01A6;
	3300 : FD25;
	3301 : 0029;
	3302 : FD4F;
	3303 : FAF7;
	3304 : 0170;
	3305 : FDF5;
	3306 : 007F;
	3307 : 03EE;
	3308 : 0244;
	3309 : FD51;
	3310 : 01D6;
	3311 : 03C2;
	3312 : FCFF;
	3313 : 0140;
	3314 : 018D;
	3315 : FD9C;
	3316 : FD05;
	3317 : 00E0;
	3318 : 0398;
	3319 : FBD5;
	3320 : 02B0;
	3321 : FAE0;
	3322 : 0600;
	3323 : 034C;
	3324 : FFF3;
	3325 : 0281;
	3326 : FFFF;
	3327 : 03A4;
	3328 : FC90;
	3329 : FE22;
	3330 : FB97;
	3331 : FF2B;
	3332 : 01D2;
	3333 : 01D5;
	3334 : 0022;
	3335 : FD09;
	3336 : 002A;
	3337 : 0584;
	3338 : 00EA;
	3339 : 026A;
	3340 : 0252;
	3341 : FE19;
	3342 : FDC7;
	3343 : FD2D;
	3344 : FB50;
	3345 : FC3E;
	3346 : FB05;
	3347 : FC16;
	3348 : 03C4;
	3349 : FD79;
	3350 : 002A;
	3351 : 0480;
	3352 : FF93;
	3353 : FE1F;
	3354 : 0409;
	3355 : 000F;
	3356 : 0369;
	3357 : 051C;
	3358 : FBA4;
	3359 : 0469;
	3360 : 02F3;
	3361 : 03C9;
	3362 : FD2B;
	3363 : FF14;
	3364 : 0232;
	3365 : FF25;
	3366 : FA26;
	3367 : FCC5;
	3368 : 0414;
	3369 : FCA1;
	3370 : FC20;
	3371 : 0456;
	3372 : 03B8;
	3373 : FAF7;
	3374 : FE93;
	3375 : 003C;
	3376 : FE13;
	3377 : FBE9;
	3378 : 03CA;
	3379 : 044B;
	3380 : 0015;
	3381 : 020E;
	3382 : FFD7;
	3383 : 00E5;
	3384 : 00AB;
	3385 : 021C;
	3386 : FAE5;
	3387 : FE09;
	3388 : 0348;
	3389 : 0282;
	3390 : FE53;
	3391 : FF64;
	3392 : FB32;
	3393 : FCDB;
	3394 : 017B;
	3395 : FF15;
	3396 : FE67;
	3397 : 04CF;
	3398 : 01F3;
	3399 : 02DA;
	3400 : 00D7;
	3401 : 0487;
	3402 : 01C2;
	3403 : FA84;
	3404 : 0154;
	3405 : 03BF;
	3406 : 0309;
	3407 : 0437;
	3408 : FDBA;
	3409 : 012F;
	3410 : FE7F;
	3411 : 0185;
	3412 : FC39;
	3413 : FC12;
	3414 : FC7F;
	3415 : 015D;
	3416 : 046C;
	3417 : 02DB;
	3418 : FC2F;
	3419 : FC9F;
	3420 : FCB2;
	3421 : 0253;
	3422 : 0188;
	3423 : FB6D;
	3424 : 0370;
	3425 : 005C;
	3426 : FAEA;
	3427 : 00A3;
	3428 : FD7A;
	3429 : FC90;
	3430 : FE50;
	3431 : 0040;
	3432 : FE78;
	3433 : 0290;
	3434 : FD7E;
	3435 : 052F;
	3436 : 038F;
	3437 : FD4C;
	3438 : 04BA;
	3439 : 022E;
	3440 : FD03;
	3441 : FF8F;
	3442 : FD3A;
	3443 : FFBD;
	3444 : FCD5;
	3445 : FF3C;
	3446 : 0369;
	3447 : 022B;
	3448 : 01F7;
	3449 : FF24;
	3450 : 01D4;
	3451 : 0290;
	3452 : 0611;
	3453 : FD45;
	3454 : FC87;
	3455 : 00DE;
	3456 : FD9D;
	3457 : 006C;
	3458 : 0376;
	3459 : FFB9;
	3460 : 0023;
	3461 : 0044;
	3462 : FE96;
	3463 : FB93;
	3464 : 0138;
	3465 : FECF;
	3466 : 042B;
	3467 : FD9C;
	3468 : FCC2;
	3469 : FCAE;
	3470 : FE81;
	3471 : FB57;
	3472 : 0306;
	3473 : 00A9;
	3474 : F962;
	3475 : 060D;
	3476 : FCF8;
	3477 : 01BB;
	3478 : 02BE;
	3479 : 0240;
	3480 : FE52;
	3481 : 01B2;
	3482 : FBF3;
	3483 : FC61;
	3484 : 0002;
	3485 : 014D;
	3486 : 015D;
	3487 : FF69;
	3488 : FB96;
	3489 : FCF0;
	3490 : FC2E;
	3491 : FF87;
	3492 : FDF1;
	3493 : 0318;
	3494 : 0035;
	3495 : 0384;
	3496 : FBF6;
	3497 : 01ED;
	3498 : FFA8;
	3499 : FD7F;
	3500 : FD84;
	3501 : 00E6;
	3502 : FD87;
	3503 : 04B7;
	3504 : 0311;
	3505 : FFD8;
	3506 : FDF3;
	3507 : 047E;
	3508 : 0062;
	3509 : 0343;
	3510 : FE2E;
	3511 : 0104;
	3512 : 0301;
	3513 : FBBB;
	3514 : 0043;
	3515 : F9F7;
	3516 : FC2E;
	3517 : 03EE;
	3518 : 02C7;
	3519 : FB69;
	3520 : FED7;
	3521 : FE25;
	3522 : FC61;
	3523 : 006F;
	3524 : 037F;
	3525 : FC90;
	3526 : FBCB;
	3527 : FF26;
	3528 : F9F4;
	3529 : 034B;
	3530 : FBC5;
	3531 : F52E;
	3532 : 0127;
	3533 : 009D;
	3534 : FEC5;
	3535 : FC51;
	3536 : 01E8;
	3537 : 0534;
	3538 : FB66;
	3539 : 0274;
	3540 : FFD7;
	3541 : FCC3;
	3542 : FC9F;
	3543 : FDEB;
	3544 : FEE7;
	3545 : 01EA;
	3546 : FE31;
	3547 : 02A6;
	3548 : 0430;
	3549 : 00D4;
	3550 : FB4D;
	3551 : 009C;
	3552 : 0545;
	3553 : FF79;
	3554 : 016C;
	3555 : FDDF;
	3556 : 041E;
	3557 : 0459;
	3558 : 0452;
	3559 : 02F8;
	3560 : FBDD;
	3561 : 0546;
	3562 : 00C0;
	3563 : 01E7;
	3564 : FE43;
	3565 : FF7F;
	3566 : 0449;
	3567 : FB76;
	3568 : FCEB;
	3569 : 043C;
	3570 : FC87;
	3571 : 00A4;
	3572 : 02E7;
	3573 : FBC8;
	3574 : F9E5;
	3575 : FDE4;
	3576 : FBFB;
	3577 : 0110;
	3578 : 0420;
	3579 : 029F;
	3580 : FC92;
	3581 : 0299;
	3582 : FE44;
	3583 : 0184;
	3584 : 00E1;
	3585 : FC5D;
	3586 : FD39;
	3587 : 057B;
	3588 : FD66;
	3589 : FE47;
	3590 : FDD4;
	3591 : FF24;
	3592 : 0214;
	3593 : 026A;
	3594 : 015C;
	3595 : 0574;
	3596 : 015E;
	3597 : 0458;
	3598 : 04C9;
	3599 : FD7E;
	3600 : 0465;
	3601 : FD8B;
	3602 : FB73;
	3603 : 03C0;
	3604 : 0341;
	3605 : 00EE;
	3606 : FC51;
	3607 : FD9C;
	3608 : 0408;
	3609 : FCD3;
	3610 : 0170;
	3611 : FBD3;
	3612 : FF7A;
	3613 : FC10;
	3614 : FBD6;
	3615 : 037B;
	3616 : 0148;
	3617 : FE56;
	3618 : 0042;
	3619 : FC46;
	3620 : FD8B;
	3621 : FB11;
	3622 : 01C4;
	3623 : FF4A;
	3624 : 0062;
	3625 : FFD7;
	3626 : FFE1;
	3627 : FF45;
	3628 : 0476;
	3629 : FF3F;
	3630 : FEA1;
	3631 : 0407;
	3632 : FBD2;
	3633 : 02E1;
	3634 : FEE7;
	3635 : 0030;
	3636 : FEE5;
	3637 : 0053;
	3638 : FC0A;
	3639 : 01CA;
	3640 : 00C3;
	3641 : 0396;
	3642 : 01FD;
	3643 : FBA3;
	3644 : 023B;
	3645 : 0219;
	3646 : 0308;
	3647 : 0353;
	3648 : FC9A;
	3649 : FADD;
	3650 : 01D1;
	3651 : 00A8;
	3652 : FC7F;
	3653 : FECF;
	3654 : 02C1;
	3655 : FC3B;
	3656 : FEFB;
	3657 : 006E;
	3658 : 0175;
	3659 : 0018;
	3660 : 024B;
	3661 : 0350;
	3662 : FE7E;
	3663 : FDE6;
	3664 : 0395;
	3665 : 0130;
	3666 : FDE9;
	3667 : FE1E;
	3668 : 012D;
	3669 : 017E;
	3670 : FDC9;
	3671 : 0126;
	3672 : 011B;
	3673 : FC4D;
	3674 : FC30;
	3675 : 0344;
	3676 : FD9B;
	3677 : FE1C;
	3678 : 02AC;
	3679 : 0513;
	3680 : FD28;
	3681 : FFF1;
	3682 : 021B;
	3683 : FF6E;
	3684 : FCAF;
	3685 : FC88;
	3686 : 0320;
	3687 : FE79;
	3688 : 0026;
	3689 : FAC7;
	3690 : 02A1;
	3691 : 0485;
	3692 : FBEF;
	3693 : FE54;
	3694 : 0391;
	3695 : FCA1;
	3696 : FF30;
	3697 : 01AD;
	3698 : 02CA;
	3699 : 0389;
	3700 : FCE3;
	3701 : 089E;
	3702 : FC31;
	3703 : F8A3;
	3704 : FF14;
	3705 : FE96;
	3706 : FECD;
	3707 : 0097;
	3708 : 0116;
	3709 : FD7A;
	3710 : FDCC;
	3711 : FD07;
	3712 : FB44;
	3713 : 0278;
	3714 : FB92;
	3715 : FC86;
	3716 : 02AA;
	3717 : 02E7;
	3718 : 0289;
	3719 : 013E;
	3720 : FC92;
	3721 : FB4E;
	3722 : 0503;
	3723 : 02B7;
	3724 : FC37;
	3725 : FF8C;
	3726 : FB1B;
	3727 : 0070;
	3728 : 046E;
	3729 : 0155;
	3730 : 0479;
	3731 : FE16;
	3732 : 02BD;
	3733 : FD2E;
	3734 : FA22;
	3735 : FF13;
	3736 : FFD7;
	3737 : FE51;
	3738 : 02FD;
	3739 : FF4D;
	3740 : 01E9;
	3741 : FE82;
	3742 : FD69;
	3743 : 0454;
	3744 : 0004;
	3745 : 03C8;
	3746 : FC3C;
	3747 : 04A2;
	3748 : 0510;
	3749 : FED4;
	3750 : FDBF;
	3751 : FDF8;
	3752 : FA3D;
	3753 : 05FD;
	3754 : 0440;
	3755 : FC44;
	3756 : FBC0;
	3757 : FD47;
	3758 : FBBE;
	3759 : FBA5;
	3760 : 0353;
	3761 : 006F;
	3762 : 031F;
	3763 : 03AD;
	3764 : 03BA;
	3765 : 01DA;
	3766 : FEEE;
	3767 : 02B8;
	3768 : FCE1;
	3769 : 035C;
	3770 : 039E;
	3771 : 03DD;
	3772 : 058E;
	3773 : 0579;
	3774 : FC7D;
	3775 : F784;
	3776 : FE58;
	3777 : FC9C;
	3778 : 0494;
	3779 : FAF9;
	3780 : 043E;
	3781 : 0427;
	3782 : 048C;
	3783 : FE2E;
	3784 : FBC9;
	3785 : FEAA;
	3786 : FDBC;
	3787 : FD61;
	3788 : FAD1;
	3789 : F95F;
	3790 : 01ED;
	3791 : FF1F;
	3792 : 043E;
	3793 : 0345;
	3794 : 02EE;
	3795 : FAE0;
	3796 : 01BF;
	3797 : 0586;
	3798 : 00C8;
	3799 : 0098;
	3800 : FD43;
	3801 : 036F;
	3802 : 0123;
	3803 : FBE9;
	3804 : FE99;
	3805 : FBDD;
	3806 : 0448;
	3807 : 0549;
	3808 : 025D;
	3809 : FFA2;
	3810 : 02DD;
	3811 : 016B;
	3812 : 0355;
	3813 : FF3E;
	3814 : FC7A;
	3815 : 0145;
	3816 : 0075;
	3817 : 0019;
	3818 : FE2B;
	3819 : FC0C;
	3820 : FE7A;
	3821 : FD33;
	3822 : 03B8;
	3823 : 0342;
	3824 : 03E6;
	3825 : 009E;
	3826 : FFFB;
	3827 : 04A6;
	3828 : FE36;
	3829 : 01CA;
	3830 : 014A;
	3831 : FD67;
	3832 : FDDB;
	3833 : 0171;
	3834 : FA90;
	3835 : 0129;
	3836 : 0449;
	3837 : FBAA;
	3838 : FF84;
	3839 : FEC6;
	3840 : 040A;
	3841 : 0047;
	3842 : FA80;
	3843 : FFF8;
	3844 : FF40;
	3845 : FE5C;
	3846 : 026C;
	3847 : 0190;
	3848 : FD59;
	3849 : 03C8;
	3850 : FEC2;
	3851 : FE71;
	3852 : FCBE;
	3853 : 013B;
	3854 : 0347;
	3855 : FFBF;
	3856 : FEBF;
	3857 : F92F;
	3858 : 02CE;
	3859 : FF08;
	3860 : FD68;
	3861 : FE0D;
	3862 : 02EF;
	3863 : 00CC;
	3864 : 024D;
	3865 : FC7F;
	3866 : 0304;
	3867 : 032C;
	3868 : FD19;
	3869 : 0020;
	3870 : 0271;
	3871 : 03DE;
	3872 : 03C6;
	3873 : 0408;
	3874 : 03BA;
	3875 : FE63;
	3876 : FD52;
	3877 : FD1F;
	3878 : FE41;
	3879 : 012D;
	3880 : FCCD;
	3881 : 002A;
	3882 : FE0A;
	3883 : 0552;
	3884 : 0013;
	3885 : FFFB;
	3886 : FED5;
	3887 : 0160;
	3888 : 0019;
	3889 : FCE2;
	3890 : 05E7;
	3891 : 040E;
	3892 : FCA9;
	3893 : 073E;
	3894 : 03CC;
	3895 : 00CE;
	3896 : 02EA;
	3897 : 0479;
	3898 : 004F;
	3899 : FF99;
	3900 : 02A6;
	3901 : 0494;
	3902 : FBAA;
	3903 : 048E;
	3904 : 00C4;
	3905 : FF3D;
	3906 : FF3C;
	3907 : 009E;
	3908 : FEC4;
	3909 : 02D6;
	3910 : FC38;
	3911 : 037F;
	3912 : 00FA;
	3913 : 089C;
	3914 : 00AF;
	3915 : F3EA;
	3916 : F738;
	3917 : 0509;
	3918 : 04CE;
	3919 : FE44;
	3920 : 03F9;
	3921 : FE35;
	3922 : FD88;
	3923 : FC19;
	3924 : FFD6;
	3925 : FE41;
	3926 : FC05;
	3927 : FF72;
	3928 : 0441;
	3929 : FEE8;
	3930 : FEC6;
	3931 : FE9D;
	3932 : FFFF;
	3933 : FF2C;
	3934 : 0106;
	3935 : FCAA;
	3936 : 006C;
	3937 : 0156;
	3938 : FBA0;
	3939 : FCA9;
	3940 : FC7A;
	3941 : FDA6;
	3942 : FF6F;
	3943 : FEF8;
	3944 : 02F8;
	3945 : FBF8;
	3946 : FC56;
	3947 : FF68;
	3948 : FCED;
	3949 : FE07;
	3950 : 0084;
	3951 : 00F4;
	3952 : 00FB;
	3953 : FBDA;
	3954 : 0376;
	3955 : FDC6;
	3956 : FAEE;
	3957 : 0376;
	3958 : FD29;
	3959 : 028E;
	3960 : FB69;
	3961 : 0148;
	3962 : FD19;
	3963 : 0488;
	3964 : FFA0;
	3965 : FB6A;
	3966 : FED7;
	3967 : 00FA;
	3968 : FD2E;
	3969 : 01EC;
	3970 : FD61;
	3971 : 04E1;
	3972 : 098A;
	3973 : FAEB;
	3974 : 038B;
	3975 : FB6B;
	3976 : FF89;
	3977 : FB66;
	3978 : 0440;
	3979 : 0364;
	3980 : 02D5;
	3981 : FFD0;
	3982 : FEDA;
	3983 : FF77;
	3984 : FEAC;
	3985 : 0211;
	3986 : 0384;
	3987 : FB7A;
	3988 : FB2D;
	3989 : 0093;
	3990 : FEC5;
	3991 : FAAD;
	3992 : FCC6;
	3993 : 05AC;
	3994 : 0394;
	3995 : F9F9;
	3996 : 0262;
	3997 : 0503;
	3998 : 00BA;
	3999 : FB0E;
	4000 : 039A;
	4001 : FD36;
	4002 : 0413;
	4003 : FD44;
	4004 : 02B7;
	4005 : FFE0;
	4006 : FC4C;
	4007 : 033A;
	4008 : FD4E;
	4009 : 01A1;
	4010 : FEC3;
	4011 : FE5F;
	4012 : FEAC;
	4013 : 04DF;
	4014 : 0328;
	4015 : 057B;
	4016 : 045D;
	4017 : 0285;
	4018 : FF11;
	4019 : 01B7;
	4020 : 038E;
	4021 : FCA7;
	4022 : FD5E;
	4023 : 03C5;
	4024 : 01DA;
	4025 : 0021;
	4026 : 031B;
	4027 : 0333;
	4028 : FFDD;
	4029 : 03D2;
	4030 : 014C;
	4031 : FCE7;
	4032 : 03C7;
	4033 : 030B;
	4034 : 01A3;
	4035 : 00FF;
	4036 : 0238;
	4037 : FFDF;
	4038 : FD36;
	4039 : 04D9;
	4040 : FCFB;
	4041 : FFEA;
	4042 : 0034;
	4043 : 0297;
	4044 : FD36;
	4045 : FCE8;
	4046 : 04EB;
	4047 : 00C0;
	4048 : 02D2;
	4049 : 0260;
	4050 : 030B;
	4051 : 0422;
	4052 : 0238;
	4053 : 0254;
	4054 : FF2B;
	4055 : 018B;
	4056 : 01C0;
	4057 : FCC4;
	4058 : FF93;
	4059 : 0503;
	4060 : FB4F;
	4061 : FDE3;
	4062 : 0176;
	4063 : FD21;
	4064 : FF8F;
	4065 : FC37;
	4066 : 00A6;
	4067 : FC6E;
	4068 : FB9E;
	4069 : FE9C;
	4070 : FD62;
	4071 : 0106;
	4072 : FDCE;
	4073 : 0433;
	4074 : FCAD;
	4075 : 01CB;
	4076 : FC02;
	4077 : FC53;
	4078 : 01DB;
	4079 : FBD2;
	4080 : FD16;
	4081 : 01C5;
	4082 : FD2E;
	4083 : 0412;
	4084 : 0302;
	4085 : FC00;
	4086 : F91F;
	4087 : FAB9;
	4088 : 02A5;
	4089 : FFBD;
	4090 : 0505;
	4091 : 0466;
	4092 : FD4D;
	4093 : 05C1;
	4094 : FA9F;
	4095 : 02A3;
END;
